<pad>	0
<s>	0
</s>	0
<unk>	0
[EOS]	0
[PAD]	0
[BOS]	0
Source:	0
Target:	0
▁t	-0
ng	-1
▁c	-2
▁th	-3
▁n	-4
▁a	-5
▁đ	-6
▁s	-7
▁b	-8
▁m	-9
▁l	-10
▁h	-11
▁v	-12
▁i	-13
▁w	-14
▁the	-15
▁ch	-16
er	-17
▁o	-18
▁k	-19
▁p	-20
▁nh	-21
▁g	-22
▁d	-23
re	-24
at	-25
nd	-26
▁tr	-27
ou	-28
nh	-29
▁kh	-30
on	-31
en	-32
▁to	-33
an	-34
ing	-35
▁ng	-36
▁and	-37
▁và	-38
es	-39
▁f	-40
▁r	-41
▁là	-42
ôi	-43
or	-44
al	-45
▁of	-46
▁in	-47
ed	-48
▁tôi	-49
▁y	-50
▁ph	-51
is	-52
it	-53
ar	-54
ông	-55
ch	-56
in	-57
▁gi	-58
▁có	-59
▁that	-60
ột	-61
ay	-62
om	-63
▁một	-64
▁e	-65
ên	-66
as	-67
▁chú	-68
le	-69
▁you	-70
ời	-71
▁wh	-72
▁cá	-73
▁chúng	-74
qu	-75
iệ	-76
▁it	-77
ll	-78
ve	-79
us	-80
▁we	-81
ic	-82
▁qu	-83
▁be	-84
ững	-85
▁ta	-86
iế	-87
ới	-88
▁những	-89
ow	-90
ly	-91
ut	-92
▁củ	-93
▁is	-94
▁của	-95
ion	-96
ất	-97
▁không	-98
ạn	-99
ong	-100
ot	-101
ười	-102
▁ha	-103
ent	-104
et	-105
▁nó	-106
ượ	-107
iề	-108
▁re	-109
▁như	-110
▁nà	-111
▁x	-112
▁đó	-113
▁bạn	-114
▁on	-115
ct	-116
▁người	-117
iều	-118
ld	-119
▁so	-120
ại	-121
▁trong	-122
▁ngh	-123
gh	-124
▁this	-125
uy	-126
se	-127
▁họ	-128
▁thể	-129
ur	-130
ược	-131
▁st	-132
id	-133
▁được	-134
▁các	-135
▁ra	-136
▁này	-137
ang	-138
▁đã	-139
▁li	-140
am	-141
st	-142
ây	-143
▁do	-144
ình	-145
▁cho	-146
▁với	-147
im	-148
ver	-149
▁for	-150
ce	-151
ấy	-152
▁con	-153
ere	-154
ter	-155
op	-156
ần	-157
▁sự	-158
ke	-159
▁u	-160
ải	-161
▁an	-162
▁sa	-163
ir	-164
▁làm	-165
▁they	-166
▁was	-167
▁ở	-168
▁để	-169
▁lo	-170
ro	-171
▁are	-172
ith	-173
▁mà	-174
▁khi	-175
▁1	-176
▁cả	-177
th	-178
ân	-179
▁điều	-180
ác	-181
▁sẽ	-182
▁go	-183
ằng	-184
▁with	-185
ơn	-186
▁về	-187
▁but	-188
▁se	-189
ực	-190
ol	-191
ống	-192
iên	-193
▁mo	-194
▁as	-195
▁j	-196
▁can	-197
▁have	-198
ally	-199
ật	-200
iể	-201
▁ab	-202
ad	-203
▁he	-204
▁what	-205
ầu	-206
iết	-207
▁thế	-208
▁ne	-209
▁nhưng	-210
ướ	-211
▁sh	-212
ation	-213
inh	-214
ành	-215
em	-216
ến	-217
▁ho	-218
▁từ	-219
▁its	-220
▁wor	-221
ght	-222
▁com	-223
▁nă	-224
out	-225
▁at	-226
ết	-227
il	-228
ould	-229
ers	-230
▁việ	-231
▁đến	-232
ức	-233
ill	-234
▁me	-235
▁fr	-236
▁đây	-237
▁nói	-238
▁not	-239
ant	-240
▁mu	-241
▁la	-242
use	-243
▁phải	-244
ính	-245
ước	-246
nt	-247
▁độ	-248
▁all	-249
ối	-250
▁cu	-251
ra	-252
ườ	-253
▁my	-254
▁vào	-255
▁việc	-256
▁or	-257
▁di	-258
iện	-259
ươ	-260
▁about	-261
▁im	-262
▁ex	-263
00	-264
▁there	-265
ường	-266
▁vì	-267
ust	-268
pp	-269
àn	-270
ận	-271
est	-272
âu	-273
▁hơn	-274
▁som	-275
▁đang	-276
▁ma	-277
od	-278
ul	-279
▁nghĩ	-280
▁nhiều	-281
▁lại	-282
ùng	-283
▁rằng	-284
▁gì	-285
ản	-286
▁thấy	-287
▁cách	-288
▁de	-289
▁pe	-290
▁tiế	-291
ac	-292
um	-293
▁rất	-294
ương	-295
art	-296
ài	-297
ag	-298
▁pro	-299
▁đầu	-300
ess	-301
▁chỉ	-302
▁al	-303
▁like	-304
▁công	-305
▁our	-306
▁one	-307
ig	-308
ies	-309
▁peop	-310
ear	-311
ate	-312
ậy	-313
ist	-314
ity	-315
▁học	-316
ight	-317
▁were	-318
▁trên	-319
ure	-320
▁people	-321
▁bec	-322
ause	-323
▁khác	-324
▁thực	-325
ọi	-326
ơi	-327
ốn	-328
▁2	-329
ổi	-330
▁from	-331
▁if	-332
ếu	-333
ạo	-334
ok	-335
▁vậy	-336
▁us	-337
ble	-338
▁biết	-339
anh	-340
▁năm	-341
▁chuy	-342
▁su	-343
àng	-344
▁phá	-345
ff	-346
▁thứ	-347
▁kn	-348
ao	-349
iệu	-350
▁đề	-351
▁sp	-352
ect	-353
▁đi	-354
▁just	-355
▁when	-356
▁nào	-357
▁cũ	-358
▁nếu	-359
▁thành	-360
ind	-361
▁te	-362
▁now	-363
ung	-364
▁out	-365
▁these	-366
os	-367
el	-368
ink	-369
rou	-370
ia	-371
ắt	-372
iến	-373
▁cũng	-374
▁thu	-375
▁cái	-376
▁dụ	-377
▁số	-378
▁bị	-379
all	-380
▁nhà	-381
ive	-382
ộc	-383
▁know	-384
▁them	-385
ain	-386
ci	-387
un	-388
▁nên	-389
▁pl	-390
▁tim	-391
▁by	-392
▁how	-393
ie	-394
ort	-395
áng	-396
▁quan	-397
ăn	-398
ích	-399
▁because	-400
ập	-401
▁who	-402
▁your	-403
ery	-404
▁thing	-405
▁up	-406
her	-407
êu	-408
úc	-409
▁nhất	-410
▁chính	-411
▁think	-412
and	-413
▁some	-414
ồi	-415
ấn	-416
▁động	-417
▁more	-418
ái	-419
▁muốn	-420
one	-421
ich	-422
▁ever	-423
▁get	-424
▁anh	-425
▁co	-426
▁mình	-427
▁tạo	-428
ữa	-429
▁their	-430
▁int	-431
▁giới	-432
ởi	-433
án	-434
▁hay	-435
ặt	-436
ine	-437
ưở	-438
ưởng	-439
▁had	-440
▁very	-441
▁kho	-442
▁tại	-443
og	-444
▁lớ	-445
▁giờ	-446
òn	-447
▁mọi	-448
▁act	-449
ưa	-450
au	-451
ont	-452
ền	-453
▁see	-454
▁le	-455
▁hiện	-456
▁would	-457
ốt	-458
ắc	-459
âm	-460
▁quy	-461
▁cảm	-462
▁ông	-463
ame	-464
ốc	-465
ặc	-466
ượng	-467
ỏi	-468
ard	-469
ứng	-470
▁going	-471
▁year	-472
iểu	-473
▁sau	-474
▁than	-475
iz	-476
▁tho	-477
▁sống	-478
▁nhận	-479
▁cần	-480
king	-481
ap	-482
▁hình	-483
act	-484
▁no	-485
▁comp	-486
ày	-487
ast	-488
▁thật	-489
▁bởi	-490
iv	-491
ôn	-492
▁tự	-493
▁còn	-494
ment	-495
our	-496
ack	-497
ous	-498
ide	-499
are	-500
▁bu	-501
▁ý	-502
ện	-503
▁đị	-504
▁which	-505
▁look	-506
▁thats	-507
▁đồ	-508
▁tất	-509
ans	-510
▁every	-511
▁ấy	-512
ence	-513
▁nhân	-514
▁ev	-515
▁want	-516
ìn	-517
▁theo	-518
▁cuộc	-519
▁world	-520
ẫn	-521
▁cùng	-522
reat	-523
res	-524
▁tin	-525
▁ag	-526
ọng	-527
▁lớn	-528
▁pr	-529
▁em	-530
▁man	-531
▁way	-532
▁cơ	-533
▁un	-534
▁thì	-535
iểm	-536
▁really	-537
ghter	-538
ội	-539
hing	-540
▁sao	-541
▁gia	-542
▁bắt	-543
▁sinh	-544
▁time	-545
▁lau	-546
▁câu	-547
▁oth	-548
▁qua	-549
òng	-550
▁fe	-551
ions	-552
ually	-553
▁bằng	-554
▁then	-555
▁nhìn	-556
▁per	-557
▁lu	-558
▁thời	-559
ỗi	-560
▁exp	-561
▁cứ	-562
▁has	-563
▁will	-564
▁lên	-565
▁trước	-566
▁bản	-567
▁ngày	-568
▁could	-569
▁am	-570
▁laughter	-571
▁cười	-572
ace	-573
▁thay	-574
▁tới	-575
▁tế	-576
▁giá	-577
▁nước	-578
▁năng	-579
ục	-580
▁new	-581
▁nơi	-582
▁tay	-583
▁en	-584
ach	-585
ore	-586
▁into	-587
ìm	-588
▁dụng	-589
▁đổi	-590
▁dont	-591
▁ro	-592
ảng	-593
ab	-594
ạt	-595
ild	-596
▁work	-597
▁trở	-598
▁toàn	-599
▁where	-600
▁cl	-601
▁bộ	-602
▁chuyện	-603
▁nghiệ	-604
▁má	-605
▁tw	-606
ảo	-607
▁say	-608
▁inter	-609
▁other	-610
if	-611
▁phát	-612
ud	-613
▁tìm	-614
ăng	-615
nder	-616
▁cô	-617
▁well	-618
▁nhau	-619
▁thông	-620
▁tiếng	-621
ck	-622
ánh	-623
▁ar	-624
ảnh	-625
▁did	-626
ical	-627
▁3	-628
▁here	-629
▁her	-630
▁hệ	-631
iển	-632
▁vật	-633
▁years	-634
▁vấn	-635
iệt	-636
▁sử	-637
ách	-638
▁phần	-639
pt	-640
age	-641
▁kết	-642
▁xu	-643
▁actually	-644
▁định	-645
▁mới	-646
▁somet	-647
▁hã	-648
▁mạ	-649
▁dự	-650
▁tuy	-651
ai	-652
itt	-653
ấp	-654
▁things	-655
▁any	-656
▁tốt	-657
▁tính	-658
▁dis	-659
▁trường	-660
▁po	-661
▁tu	-662
▁hàng	-663
▁need	-664
▁make	-665
ấu	-666
so	-667
▁id	-668
▁hành	-669
▁app	-670
▁nhiên	-671
▁been	-672
▁diff	-673
▁right	-674
▁over	-675
ip	-676
ge	-677
▁tưởng	-678
ảy	-679
▁mặt	-680
▁lý	-681
▁ai	-682
..	-683
▁fir	-684
▁imp	-685
▁tiếp	-686
▁hai	-687
ens	-688
▁hỏi	-689
ry	-690
ri	-691
ợp	-692
▁liệu	-693
ber	-694
▁rồi	-695
▁she	-696
fe	-697
▁part	-698
át	-699
ice	-700
▁hợp	-701
▁đo	-702
▁đồng	-703
▁start	-704
▁máy	-705
ển	-706
▁those	-707
▁trình	-708
lo	-709
▁first	-710
ồn	-711
▁af	-712
óa	-713
▁gian	-714
orm	-715
▁happ	-716
iêu	-717
ite	-718
ves	-719
ệnh	-720
▁hãy	-721
ory	-722
ree	-723
ound	-724
own	-725
▁vài	-726
▁ảnh	-727
ắn	-728
▁may	-729
▁ac	-730
▁hội	-731
▁trọng	-732
ạc	-733
▁two	-734
▁ad	-735
▁even	-736
round	-737
▁lượng	-738
ep	-739
ount	-740
ving	-741
▁something	-742
▁thức	-743
ass	-744
▁most	-745
▁also	-746
▁kinh	-747
▁call	-748
▁spe	-749
▁back	-750
sel	-751
▁đối	-752
▁giải	-753
▁thường	-754
▁bất	-755
olog	-756
▁differ	-757
▁tiên	-758
▁vi	-759
ater	-760
▁bệnh	-761
▁xem	-762
▁nay	-763
▁bà	-764
▁much	-765
▁nữa	-766
▁thiết	-767
▁vị	-768
▁cont	-769
▁lần	-770
▁đều	-771
▁said	-772
▁his	-773
▁trẻ	-774
ue	-775
red	-776
▁quá	-777
▁bet	-778
ắng	-779
ome	-780
▁res	-781
▁ngo	-782
co	-783
▁tal	-784
▁bo	-785
▁chiế	-786
▁hoặc	-787
▁hóa	-788
▁theres	-789
êm	-790
ign	-791
ộng	-792
▁giống	-793
ru	-794
▁hiểu	-795
▁sy	-796
▁gen	-797
▁loại	-798
▁trung	-799
▁only	-800
▁tâm	-801
way	-802
ịch	-803
▁under	-804
▁hum	-805
▁many	-806
▁bao	-807
▁thích	-808
ations	-809
▁tương	-810
cent	-811
ated	-812
▁life	-813
▁điểm	-814
▁cứu	-815
ễn	-816
able	-817
▁chang	-818
▁got	-819
vel	-820
▁day	-821
ple	-822
▁nghĩa	-823
▁mỗi	-824
▁đại	-825
▁thống	-826
úng	-827
▁giả	-828
▁des	-829
▁fo	-830
▁lot	-831
ell	-832
▁youre	-833
▁br	-834
▁viên	-835
▁sáng	-836
▁kind	-837
▁gọi	-838
ody	-839
ick	-840
ittle	-841
▁lúc	-842
▁little	-843
▁vẫn	-844
▁let	-845
▁nguy	-846
ệt	-847
▁5	-848
ish	-849
▁đường	-850
▁comm	-851
▁take	-852
▁nhỏ	-853
int	-854
úp	-855
▁20	-856
▁dùng	-857
les	-858
▁ind	-859
ph	-860
▁quả	-861
▁nghệ	-862
▁hoàn	-863
ak	-864
ents	-865
▁đất	-866
▁gr	-867
ors	-868
▁real	-869
ọn	-870
▁đưa	-871
▁theyre	-872
▁sc	-873
ance	-874
ade	-875
ict	-876
▁different	-877
▁giúp	-878
▁does	-879
ẩn	-880
▁tổ	-881
rough	-882
▁tác	-883
▁good	-884
▁phụ	-885
ress	-886
iền	-887
ase	-888
▁4	-889
▁từng	-890
▁bl	-891
▁through	-892
▁mar	-893
▁mô	-894
▁19	-895
▁xảy	-896
▁pre	-897
▁chuyển	-898
other	-899
cess	-900
▁nghe	-901
▁biệt	-902
▁bên	-903
▁vỗ	-904
▁dân	-905
▁around	-906
▁quốc	-907
▁why	-908
▁lực	-909
▁bra	-910
▁sm	-911
als	-912
▁nữ	-913
ẳng	-914
▁nghiệm	-915
▁cao	-916
▁cầu	-917
▁chất	-918
▁inc	-919
óng	-920
▁truy	-921
▁đúng	-922
▁car	-923
▁trị	-924
ath	-925
ning	-926
ừng	-927
▁quyết	-928
▁being	-929
▁hi	-930
▁tell	-931
áo	-932
▁khu	-933
▁tuyệt	-934
ầm	-935
▁triển	-936
▁liên	-937
▁ide	-938
ile	-939
form	-940
ons	-941
▁tình	-942
▁khó	-943
▁khoảng	-944
day	-945
ão	-946
▁chưa	-947
▁off	-948
wn	-949
be	-950
▁down	-951
▁jo	-952
▁chủ	-953
nds	-954
▁bảo	-955
du	-956
▁lời	-957
ether	-958
▁nghiên	-959
▁use	-960
▁chiếc	-961
▁same	-962
ợi	-963
▁dạ	-964
▁bây	-965
ough	-966
▁phân	-967
000	-968
ary	-969
ord	-970
▁tinh	-971
ower	-972
ứa	-973
▁thuật	-974
▁10	-975
lect	-976
▁ăn	-977
▁ngay	-978
ép	-979
▁human	-980
▁show	-981
ces	-982
▁cố	-983
▁biến	-984
ăm	-985
▁col	-986
▁chu	-987
▁put	-988
ful	-989
▁wom	-990
ậu	-991
▁count	-992
▁phí	-993
▁tiến	-994
▁khá	-995
ms	-996
▁kế	-997
▁hu	-998
▁giáo	-999
ắp	-1000
▁wr	-1001
▁gần	-1002
xt	-1003
▁sur	-1004
▁dec	-1005
▁proble	-1006
▁big	-1007
▁tập	-1008
stem	-1009
▁pers	-1010
▁ca	-1011
▁hết	-1012
▁hel	-1013
▁come	-1014
▁diễn	-1015
▁đơn	-1016
▁tượng	-1017
ặp	-1018
▁tư	-1019
ject	-1020
▁fact	-1021
urn	-1022
▁khoa	-1023
▁xuất	-1024
▁ear	-1025
ved	-1026
ting	-1027
▁rem	-1028
▁xe	-1029
▁ơn	-1030
▁yêu	-1031
▁great	-1032
▁pháp	-1033
▁long	-1034
út	-1035
ướng	-1036
▁cuối	-1037
▁after	-1038
ible	-1039
ửa	-1040
▁phòng	-1041
▁loài	-1042
▁tech	-1043
▁try	-1044
▁happen	-1045
▁mang	-1046
▁child	-1047
▁khả	-1048
▁ty	-1049
▁find	-1050
▁dư	-1051
ít	-1052
▁stud	-1053
▁sim	-1054
▁giữa	-1055
ert	-1056
▁điện	-1057
ial	-1058
▁não	-1059
▁thank	-1060
▁tuổi	-1061
ib	-1062
▁talk	-1063
▁truyền	-1064
ren	-1065
▁bình	-1066
▁hiệu	-1067
ys	-1068
óc	-1069
▁system	-1070
▁khí	-1071
ét	-1072
▁ba	-1073
▁techn	-1074
▁gh	-1075
▁bé	-1076
▁again	-1077
▁fl	-1078
▁appl	-1079
▁chí	-1080
▁inst	-1081
▁bỏ	-1082
self	-1083
▁sản	-1084
fore	-1085
▁tranh	-1086
▁lear	-1087
▁ban	-1088
▁inv	-1089
▁thân	-1090
▁three	-1091
▁dr	-1092
ult	-1093
ities	-1094
▁ngoài	-1095
▁mỹ	-1096
ft	-1097
▁quest	-1098
▁help	-1099
▁called	-1100
▁chiến	-1101
▁hoạt	-1102
▁minh	-1103
▁own	-1104
▁today	-1105
▁ob	-1106
▁bel	-1107
we	-1108
▁trả	-1109
▁đặt	-1110
▁cr	-1111
▁doing	-1112
▁mất	-1113
ics	-1114
thing	-1115
▁feel	-1116
▁thị	-1117
ậm	-1118
▁kỳ	-1119
▁lấy	-1120
ition	-1121
ious	-1122
ically	-1123
▁bài	-1124
av	-1125
▁tiền	-1126
▁build	-1127
ates	-1128
▁sức	-1129
ating	-1130
▁cộng	-1131
▁phương	-1132
▁percent	-1133
ẩm	-1134
▁rep	-1135
▁vô	-1136
▁mẹ	-1137
ire	-1138
ought	-1139
▁ke	-1140
▁made	-1141
▁trái	-1142
ual	-1143
ạnh	-1144
▁kể	-1145
▁should	-1146
ail	-1147
illion	-1148
iệm	-1149
▁brain	-1150
▁đáng	-1151
ric	-1152
ize	-1153
ology	-1154
▁tên	-1155
ian	-1156
iver	-1157
▁thú	-1158
cial	-1159
▁sch	-1160
▁weve	-1161
óm	-1162
▁nghiệp	-1163
ọc	-1164
per	-1165
▁mạnh	-1166
▁sci	-1167
ừa	-1168
▁luôn	-1169
▁underst	-1170
▁đời	-1171
▁exper	-1172
▁âm	-1173
▁import	-1174
te	-1175
▁trí	-1176
▁bức	-1177
▁ít	-1178
▁ask	-1179
▁xã	-1180
▁quyền	-1181
▁change	-1182
▁6	-1183
▁pos	-1184
▁văn	-1185
▁lập	-1186
▁tiêu	-1187
▁bi	-1188
▁tử	-1189
▁dẫn	-1190
▁tra	-1191
▁end	-1192
ấm	-1193
lt	-1194
▁ví	-1195
▁high	-1196
▁đâu	-1197
...	-1198
body	-1199
▁tăng	-1200
▁rel	-1201
ope	-1202
▁sách	-1203
▁ive	-1204
▁chứng	-1205
▁nguyên	-1206
▁applause	-1207
▁hướng	-1208
▁didnt	-1209
▁bas	-1210
▁pu	-1211
▁before	-1212
▁ins	-1213
▁đặc	-1214
▁vụ	-1215
▁dù	-1216
ork	-1217
▁cons	-1218
▁mean	-1219
pe	-1220
▁chơi	-1221
▁chọn	-1222
▁thử	-1223
▁him	-1224
ạm	-1225
ists	-1226
▁person	-1227
oth	-1228
▁important	-1229
uyết	-1230
▁trans	-1231
▁imag	-1232
▁ứng	-1233
▁hô	-1234
▁creat	-1235
▁each	-1236
▁might	-1237
ào	-1238
▁đá	-1239
▁thư	-1240
▁fu	-1241
ise	-1242
gan	-1243
▁phố	-1244
▁fam	-1245
▁still	-1246
▁tài	-1247
▁pol	-1248
▁better	-1249
▁nhạc	-1250
▁understand	-1251
▁xây	-1252
▁last	-1253
▁lư	-1254
▁thought	-1255
ars	-1256
▁mus	-1257
▁kiến	-1258
▁triệu	-1259
▁never	-1260
ty	-1261
▁another	-1262
ily	-1263
▁sĩ	-1264
▁exam	-1265
▁sl	-1266
▁ngu	-1267
▁play	-1268
▁commun	-1269
con	-1270
▁lẽ	-1271
▁power	-1272
ẫu	-1273
ool	-1274
▁suy	-1275
ility	-1276
bl	-1277
▁màu	-1278
ầy	-1279
▁khiến	-1280
▁started	-1281
▁pat	-1282
▁turn	-1283
ạch	-1284
▁num	-1285
▁gặp	-1286
▁chức	-1287
alth	-1288
▁cour	-1289
▁idea	-1290
▁ok	-1291
▁khỏi	-1292
▁plan	-1293
▁thần	-1294
▁cấp	-1295
▁med	-1296
▁ent	-1297
▁chế	-1298
▁mon	-1299
▁sol	-1300
▁phi	-1301
▁mạng	-1302
iếm	-1303
ạp	-1304
kes	-1305
▁đấy	-1306
▁phẩm	-1307
ution	-1308
▁viết	-1309
▁cant	-1310
▁cực	-1311
▁cụ	-1312
▁give	-1313
▁chung	-1314
▁found	-1315
▁vời	-1316
▁dựng	-1317
▁tog	-1318
▁belie	-1319
▁together	-1320
iss	-1321
▁chết	-1322
▁design	-1323
▁nhóm	-1324
▁cam	-1325
▁đứa	-1326
ids	-1327
▁point	-1328
ss	-1329
▁200	-1330
▁rõ	-1331
ular	-1332
▁xác	-1333
▁school	-1334
ark	-1335
▁dưới	-1336
▁produ	-1337
▁7	-1338
▁bit	-1339
iê	-1340
▁story	-1341
▁few	-1342
▁able	-1343
▁ser	-1344
▁cảnh	-1345
▁nền	-1346
▁100	-1347
ẹp	-1348
▁dữ	-1349
▁9	-1350
▁rec	-1351
▁đạo	-1352
▁dịch	-1353
ness	-1354
▁đánh	-1355
▁water	-1356
erg	-1357
▁sư	-1358
▁sát	-1359
▁cent	-1360
▁đôi	-1361
eric	-1362
▁chắc	-1363
▁next	-1364
▁problem	-1365
▁too	-1366
▁intern	-1367
ose	-1368
az	-1369
ix	-1370
▁thêm	-1371
▁tháng	-1372
▁interest	-1373
ied	-1374
▁eng	-1375
ction	-1376
ắm	-1377
▁cây	-1378
▁learn	-1379
▁fin	-1380
▁bào	-1381
▁nhớ	-1382
▁vide	-1383
ward	-1384
ween	-1385
▁nam	-1386
▁dễ	-1387
▁quanh	-1388
ah	-1389
▁ter	-1390
▁thậm	-1391
▁ed	-1392
▁giác	-1393
▁str	-1394
▁met	-1395
ited	-1396
▁giản	-1397
▁att	-1398
▁dat	-1399
▁mở	-1400
▁gây	-1401
▁women	-1402
oc	-1403
▁art	-1404
▁8	-1405
ds	-1406
▁went	-1407
▁mod	-1408
atch	-1409
▁báo	-1410
▁between	-1411
ines	-1412
▁nhanh	-1413
read	-1414
▁đủ	-1415
arch	-1416
▁xuống	-1417
▁quay	-1418
ave	-1419
▁prot	-1420
▁hy	-1421
▁càng	-1422
ience	-1423
▁cell	-1424
▁love	-1425
ized	-1426
▁gra	-1427
▁nguồn	-1428
▁place	-1429
▁thương	-1430
▁vùng	-1431
▁mom	-1432
▁comple	-1433
▁el	-1434
ather	-1435
▁án	-1436
▁lai	-1437
velop	-1438
▁vọng	-1439
▁chị	-1440
▁lets	-1441
ồng	-1442
ven	-1443
▁phía	-1444
▁rob	-1445
ures	-1446
▁used	-1447
▁châu	-1448
▁vu	-1449
▁bay	-1450
▁kì	-1451
▁mức	-1452
▁tục	-1453
▁phép	-1454
▁hôm	-1455
▁phản	-1456
▁duy	-1457
▁xa	-1458
▁develop	-1459
uc	-1460
▁vũ	-1461
▁thuyết	-1462
▁nat	-1463
▁course	-1464
▁question	-1465
ủng	-1466
▁dài	-1467
▁ago	-1468
ense	-1469
▁dạng	-1470
▁seco	-1471
ale	-1472
pl	-1473
▁đa	-1474
▁á	-1475
ways	-1476
▁data	-1477
▁cre	-1478
▁chẳng	-1479
▁health	-1480
▁op	-1481
▁came	-1482
▁care	-1483
▁tham	-1484
▁hưởng	-1485
▁kiểm	-1486
ets	-1487
▁ext	-1488
▁video	-1489
▁min	-1490
▁small	-1491
cept	-1492
▁trò	-1493
▁đàn	-1494
▁far	-1495
▁sk	-1496
▁chia	-1497
ings	-1498
▁old	-1499
▁giảm	-1500
orn	-1501
▁light	-1502
▁15	-1503
iêng	-1504
▁trời	-1505
▁maybe	-1506
▁đình	-1507
ced	-1508
òa	-1509
▁chút	-1510
▁whats	-1511
▁vực	-1512
▁xin	-1513
▁z	-1514
▁eff	-1515
▁technology	-1516
▁hard	-1517
▁example	-1518
▁gắng	-1519
▁thuốc	-1520
▁grow	-1521
âng	-1522
▁children	-1523
▁bước	-1524
▁read	-1525
▁doesnt	-1526
▁four	-1527
ks	-1528
ood	-1529
▁cap	-1530
▁chi	-1531
▁phim	-1532
▁đô	-1533
▁americ	-1534
▁move	-1535
▁đẹp	-1536
▁trang	-1537
▁lệ	-1538
▁va	-1539
▁tồn	-1540
▁nghi	-1541
▁inform	-1542
▁partic	-1543
ựa	-1544
▁wal	-1545
▁live	-1546
▁địa	-1547
▁less	-1548
▁cậu	-1549
▁war	-1550
▁trải	-1551
ative	-1552
bs	-1553
▁thanh	-1554
cy	-1555
▁giao	-1556
gr	-1557
▁da	-1558
ross	-1559
▁ill	-1560
ism	-1561
▁lợi	-1562
ne	-1563
▁supp	-1564
▁beh	-1565
▁sort	-1566
gg	-1567
▁always	-1568
▁hạn	-1569
▁tích	-1570
▁mục	-1571
▁poss	-1572
atter	-1573
▁bus	-1574
▁ngữ	-1575
▁biểu	-1576
▁wanted	-1577
▁lar	-1578
▁mã	-1579
cer	-1580
▁inf	-1581
selves	-1582
ments	-1583
▁gener	-1584
ps	-1585
▁resp	-1586
▁comput	-1587
▁30	-1588
▁bố	-1589
▁luận	-1590
ead	-1591
▁looking	-1592
▁vòng	-1593
▁vừa	-1594
ins	-1595
▁second	-1596
ational	-1597
ằm	-1598
▁môi	-1599
▁vệ	-1600
▁kiếm	-1601
▁hầu	-1602
▁away	-1603
▁robot	-1604
ably	-1605
ost	-1606
▁sợ	-1607
iness	-1608
ute	-1609
▁done	-1610
▁mắt	-1611
▁hộ	-1612
▁đoán	-1613
▁sing	-1614
▁hồi	-1615
ten	-1616
▁times	-1617
▁dục	-1618
▁number	-1619
▁sâu	-1620
▁lead	-1621
▁fut	-1622
▁đầy	-1623
▁expl	-1624
na	-1625
▁acc	-1626
hip	-1627
▁phục	-1628
▁working	-1629
▁gu	-1630
▁tối	-1631
▁kia	-1632
▁form	-1633
▁home	-1634
▁tỉ	-1635
▁believe	-1636
▁giữ	-1637
▁frie	-1638
▁phủ	-1639
▁everything	-1640
▁pres	-1641
conom	-1642
▁luật	-1643
its	-1644
▁vẻ	-1645
oney	-1646
▁thôi	-1647
▁ted	-1648
▁univer	-1649
▁đoạn	-1650
▁dành	-1651
▁vis	-1652
▁using	-1653
▁reas	-1654
▁means	-1655
▁toán	-1656
air	-1657
▁rộng	-1658
▁thiên	-1659
bo	-1660
▁elect	-1661
▁biển	-1662
▁whole	-1663
▁compan	-1664
▁run	-1665
▁thuộc	-1666
▁econom	-1667
▁country	-1668
▁trying	-1669
▁50	-1670
ạy	-1671
ruct	-1672
ural	-1673
vers	-1674
▁cou	-1675
nect	-1676
iếu	-1677
▁earth	-1678
▁stu	-1679
▁information	-1680
▁organ	-1681
àu	-1682
▁trợ	-1683
ember	-1684
▁cung	-1685
▁nối	-1686
▁lịch	-1687
ital	-1688
ories	-1689
▁space	-1690
▁thinking	-1691
iềm	-1692
▁cur	-1693
ific	-1694
ượt	-1695
▁million	-1696
▁lòng	-1697
▁che	-1698
▁reg	-1699
▁chân	-1700
▁mind	-1701
▁music	-1702
▁future	-1703
vern	-1704
▁đứng	-1705
▁ánh	-1706
▁conf	-1707
▁cle	-1708
ries	-1709
▁diện	-1710
▁riêng	-1711
▁while	-1712
sw	-1713
▁internet	-1714
ract	-1715
▁body	-1716
▁process	-1717
▁căn	-1718
aces	-1719
▁tạp	-1720
▁char	-1721
▁hand	-1722
▁vir	-1723
▁par	-1724
▁sai	-1725
▁create	-1726
▁enough	-1727
▁dem	-1728
ention	-1729
▁kids	-1730
▁become	-1731
▁set	-1732
▁gái	-1733
▁lã	-1734
ues	-1735
▁govern	-1736
èo	-1737
▁five	-1738
wh	-1739
▁publ	-1740
▁sw	-1741
▁stre	-1742
tern	-1743
▁glo	-1744
io	-1745
▁mối	-1746
▁book	-1747
▁grou	-1748
alle	-1749
▁cư	-1750
▁guy	-1751
▁without	-1752
▁đạt	-1753
▁trụ	-1754
▁best	-1755
▁food	-1756
▁open	-1757
▁yếu	-1758
▁money	-1759
▁energ	-1760
▁rese	-1761
▁thoại	-1762
▁prob	-1763
▁trăm	-1764
▁đọc	-1765
▁thủ	-1766
▁answ	-1767
▁nổi	-1768
ặng	-1769
▁blo	-1770
▁face	-1771
▁thái	-1772
led	-1773
ron	-1774
▁lớp	-1775
▁head	-1776
▁keep	-1777
▁sign	-1778
▁anim	-1779
▁social	-1780
▁took	-1781
▁sound	-1782
▁khắp	-1783
▁young	-1784
man	-1785
▁wo	-1786
▁kỹ	-1787
▁making	-1788
land	-1789
▁project	-1790
▁kiểu	-1791
▁ké	-1792
ices	-1793
▁research	-1794
▁men	-1795
▁pict	-1796
ier	-1797
▁vui	-1798
cover	-1799
▁add	-1800
▁bác	-1801
▁mù	-1802
▁ge	-1803
iting	-1804
▁city	-1805
▁đông	-1806
▁chuyên	-1807
▁thúc	-1808
▁afric	-1809
▁xung	-1810
▁energy	-1811
▁eas	-1812
▁connect	-1813
▁tuần	-1814
alf	-1815
▁lang	-1816
cus	-1817
▁xúc	-1818
▁chương	-1819
▁beg	-1820
▁left	-1821
▁lives	-1822
▁stand	-1823
▁...	-1824
ety	-1825
ouse	-1826
▁doll	-1827
▁đau	-1828
▁ngồi	-1829
▁phys	-1830
▁wa	-1831
▁viện	-1832
▁teach	-1833
bal	-1834
▁vận	-1835
imate	-1836
▁pop	-1837
▁hist	-1838
uring	-1839
▁amaz	-1840
▁mặc	-1841
▁getting	-1842
pr	-1843
▁kỷ	-1844
▁ref	-1845
ạng	-1846
iew	-1847
▁month	-1848
aut	-1849
▁lâu	-1850
▁family	-1851
▁12	-1852
▁khủng	-1853
▁dạy	-1854
▁ngôn	-1855
▁such	-1856
ote	-1857
▁dist	-1858
▁comes	-1859
▁matter	-1860
▁sub	-1861
▁cửa	-1862
▁sở	-1863
▁seem	-1864
▁det	-1865
▁trông	-1866
▁khỏ	-1867
▁scient	-1868
▁bàn	-1869
▁tiết	-1870
▁youve	-1871
ever	-1872
▁mẫu	-1873
▁áp	-1874
▁gre	-1875
▁cổ	-1876
▁vâng	-1877
▁cor	-1878
▁trúc	-1879
▁chắn	-1880
▁imagine	-1881
lly	-1882
▁vo	-1883
▁contro	-1884
▁opp	-1885
▁york	-1886
der	-1887
▁air	-1888
▁bán	-1889
▁khám	-1890
▁room	-1891
▁suốt	-1892
ger	-1893
▁lí	-1894
ertain	-1895
▁hoa	-1896
▁across	-1897
▁fun	-1898
▁khỏe	-1899
▁nhiệm	-1900
▁remember	-1901
vir	-1902
▁chạy	-1903
▁told	-1904
▁sense	-1905
▁probably	-1906
▁moment	-1907
▁mark	-1908
▁wee	-1909
ụp	-1910
▁allow	-1911
▁science	-1912
ew	-1913
▁bre	-1914
▁chịu	-1915
▁pass	-1916
▁tổng	-1917
▁ấn	-1918
▁stop	-1919
▁talking	-1920
▁val	-1921
▁kiện	-1922
▁gir	-1923
▁hes	-1924
▁ngôi	-1925
▁sắc	-1926
▁buổi	-1927
ươi	-1928
▁gl	-1929
▁makes	-1930
▁mua	-1931
▁aut	-1932
ash	-1933
ince	-1934
▁cal	-1935
ner	-1936
▁har	-1937
▁độc	-1938
▁pret	-1939
ảm	-1940
most	-1941
▁thí	-1942
▁kẻ	-1943
▁soci	-1944
▁bóng	-1945
▁experience	-1946
▁once	-1947
ĩnh	-1948
▁cấu	-1949
ient	-1950
▁nằm	-1951
▁girl	-1952
▁mach	-1953
▁mic	-1954
▁môt	-1955
ants	-1956
▁mem	-1957
▁mil	-1958
▁kích	-1959
▁ey	-1960
▁happened	-1961
▁18	-1962
▁tre	-1963
viron	-1964
▁hiểm	-1965
rib	-1966
▁cánh	-1967
▁share	-1968
▁side	-1969
gn	-1970
me	-1971
▁quite	-1972
▁countries	-1973
idd	-1974
ird	-1975
▁often	-1976
▁cult	-1977
▁heres	-1978
▁beaut	-1979
▁cạnh	-1980
▁phức	-1981
áu	-1982
▁half	-1983
ences	-1984
▁pretty	-1985
▁environ	-1986
ina	-1987
▁chứ	-1988
▁anything	-1989
imes	-1990
▁both	-1991
ữu	-1992
ỡng	-1993
▁xét	-1994
▁thập	-1995
▁ràng	-1996
ỏng	-1997
▁hữu	-1998
▁list	-1999
▁interesting	-2000
▁equ	-2001
▁def	-2002
▁yet	-2003
▁ways	-2004
arent	-2005
▁sẻ	-2006
▁nhập	-2007
▁khăn	-2008
▁doanh	-2009
▁having	-2010
▁hơi	-2011
▁tệ	-2012
▁hope	-2013
▁global	-2014
▁asked	-2015
▁nạn	-2016
less	-2017
▁hour	-2018
▁lựa	-2019
▁sure	-2020
▁nhiêu	-2021
ided	-2022
▁top	-2023
▁later	-2024
▁pain	-2025
▁model	-2026
ẩy	-2027
▁building	-2028
▁dung	-2029
▁cells	-2030
▁almost	-2031
▁xử	-2032
▁study	-2033
▁answer	-2034
▁dương	-2035
▁oh	-2036
▁business	-2037
▁reason	-2038
▁hậu	-2039
gs	-2040
▁chỗ	-2041
▁heart	-2042
ones	-2043
▁polit	-2044
▁effect	-2045
▁dise	-2046
▁201	-2047
▁ghi	-2048
▁phút	-2049
cies	-2050
▁bad	-2051
▁prof	-2052
br	-2053
▁living	-2054
▁saw	-2055
ality	-2056
ortun	-2057
ẵn	-2058
▁educ	-2059
▁phot	-2060
▁coming	-2061
▁ngạc	-2062
▁black	-2063
old	-2064
lf	-2065
▁unt	-2066
▁tức	-2067
▁chuẩn	-2068
▁days	-2069
▁simple	-2070
▁tí	-2071
▁đen	-2072
▁pie	-2073
▁dựa	-2074
▁bring	-2075
▁langu	-2076
ott	-2077
ases	-2078
▁chống	-2079
▁trưởng	-2080
llow	-2081
▁test	-2082
▁mong	-2083
▁wonder	-2084
▁loc	-2085
▁instead	-2086
▁băng	-2087
▁single	-2088
▁someone	-2089
▁treat	-2090
▁dollars	-2091
▁fig	-2092
▁prop	-2093
▁lạ	-2094
▁hạt	-2095
▁else	-2096
▁lắng	-2097
▁ích	-2098
ếp	-2099
ousand	-2100
▁mor	-2101
olution	-2102
▁community	-2103
▁sit	-2104
▁yes	-2105
outh	-2106
iter	-2107
ready	-2108
ogra	-2109
uyên	-2110
▁thiếu	-2111
▁đội	-2112
▁states	-2113
ior	-2114
▁25	-2115
▁xanh	-2116
▁public	-2117
▁sẵn	-2118
▁cuốn	-2119
▁already	-2120
▁watch	-2121
▁hear	-2122
▁40	-2123
▁seen	-2124
▁nothing	-2125
▁thousand	-2126
ization	-2127
ern	-2128
▁nhi	-2129
▁whether	-2130
▁case	-2131
▁inside	-2132
▁suc	-2133
▁sang	-2134
vent	-2135
▁stuff	-2136
úi	-2137
work	-2138
▁ung	-2139
▁fore	-2140
▁vượt	-2141
▁nu	-2142
ât	-2143
alleng	-2144
▁level	-2145
▁planet	-2146
▁complete	-2147
▁lab	-2148
▁challeng	-2149
▁exact	-2150
▁happens	-2151
▁problems	-2152
ters	-2153
▁ngành	-2154
▁possible	-2155
ury	-2156
▁rest	-2157
▁trai	-2158
▁words	-2159
▁cha	-2160
ts	-2161
aps	-2162
▁ass	-2163
▁age	-2164
▁chăm	-2165
ene	-2166
▁says	-2167
ửi	-2168
ken	-2169
▁dần	-2170
▁deep	-2171
▁within	-2172
▁contin	-2173
▁environment	-2174
where	-2175
▁begin	-2176
▁thi	-2177
▁sometimes	-2178
▁hề	-2179
nding	-2180
ime	-2181
▁thất	-2182
▁goes	-2183
▁history	-2184
▁đóng	-2185
no	-2186
▁dire	-2187
▁tố	-2188
▁sec	-2189
▁phạm	-2190
osed	-2191
▁khổ	-2192
ream	-2193
▁khắc	-2194
▁lưu	-2195
▁job	-2196
▁particular	-2197
▁ru	-2198
▁ris	-2199
▁discover	-2200
▁tốc	-2201
gram	-2202
▁du	-2203
▁myself	-2204
▁chr	-2205
▁tái	-2206
▁nỗi	-2207
ately	-2208
▁certain	-2209
▁vẽ	-2210
▁dấu	-2211
ering	-2212
▁six	-2213
ilt	-2214
▁đu	-2215
▁aff	-2216
ages	-2217
▁cải	-2218
▁sắp	-2219
▁wrong	-2220
▁night	-2221
ined	-2222
▁nghèo	-2223
▁tỷ	-2224
▁tấm	-2225
ulation	-2226
▁trực	-2227
▁chữ	-2228
▁red	-2229
▁since	-2230
ồm	-2231
itive	-2232
bers	-2233
ộn	-2234
▁nhờ	-2235
▁walk	-2236
▁const	-2237
▁control	-2238
▁ẩn	-2239
▁es	-2240
▁ô	-2241
▁exc	-2242
▁until	-2243
▁nor	-2244
▁incre	-2245
pect	-2246
▁cost	-2247
▁imm	-2248
▁xấu	-2249
▁net	-2250
▁hứng	-2251
▁computer	-2252
▁chụp	-2253
▁news	-2254
▁picture	-2255
▁saying	-2256
ield	-2257
▁law	-2258
ograph	-2259
ivid	-2260
▁iss	-2261
▁danh	-2262
▁billion	-2263
▁kính	-2264
▁dev	-2265
▁nhiệt	-2266
▁trạng	-2267
▁tây	-2268
▁niệm	-2269
▁thách	-2270
▁class	-2271
▁cận	-2272
▁khách	-2273
▁group	-2274
▁dep	-2275
▁ret	-2276
▁hạnh	-2277
▁isnt	-2278
▁dna	-2279
▁past	-2280
▁friends	-2281
▁ngoại	-2282
▁program	-2283
line	-2284
▁đột	-2285
▁order	-2286
▁nhiễ	-2287
▁entire	-2288
▁hỗ	-2289
▁cancer	-2290
▁ngược	-2291
▁product	-2292
ndred	-2293
dd	-2294
▁though	-2295
▁đấu	-2296
▁months	-2297
▁dra	-2298
▁mật	-2299
ỏa	-2300
▁amazing	-2301
▁hundred	-2302
▁bro	-2303
▁ones	-2304
▁aud	-2305
unch	-2306
▁others	-2307
▁bầu	-2308
ám	-2309
iệp	-2310
▁gửi	-2311
▁thụ	-2312
▁game	-2313
▁looked	-2314
▁bab	-2315
bon	-2316
▁lan	-2317
ives	-2318
▁cond	-2319
▁lạc	-2320
▁stories	-2321
▁niềm	-2322
▁san	-2323
▁tầm	-2324
▁cra	-2325
▁true	-2326
▁kéo	-2327
▁quý	-2328
▁rad	-2329
▁tội	-2330
▁đức	-2331
▁nhu	-2332
▁woman	-2333
▁ổ	-2334
▁mơ	-2335
▁united	-2336
▁government	-2337
▁cử	-2338
▁thiện	-2339
side	-2340
cle	-2341
ton	-2342
▁individ	-2343
ond	-2344
▁chữa	-2345
▁ideas	-2346
▁must	-2347
▁mi	-2348
▁house	-2349
ats	-2350
▁gồm	-2351
▁đẩy	-2352
get	-2353
▁hòa	-2354
▁sex	-2355
▁tai	-2356
▁phúc	-2357
▁thẳng	-2358
▁self	-2359
▁av	-2360
omes	-2361
▁cua	-2362
▁nội	-2363
▁ste	-2364
▁incred	-2365
▁mắc	-2366
▁cân	-2367
▁kill	-2368
▁wasnt	-2369
▁ngủ	-2370
▁team	-2371
▁language	-2372
▁okay	-2373
cing	-2374
ivity	-2375
▁bang	-2376
▁object	-2377
▁result	-2378
▁nửa	-2379
ients	-2380
▁pay	-2381
▁soát	-2382
▁emp	-2383
▁khối	-2384
row	-2385
▁tôn	-2386
▁micro	-2387
▁figure	-2388
▁mill	-2389
▁beautif	-2390
▁fil	-2391
▁ước	-2392
▁dòng	-2393
▁train	-2394
▁del	-2395
▁lỗi	-2396
▁tàu	-2397
att	-2398
▁fre	-2399
▁quân	-2400
ider	-2401
ón	-2402
▁learned	-2403
lud	-2404
▁large	-2405
▁everyone	-2406
▁everybody	-2407
ling	-2408
▁khán	-2409
▁heard	-2410
▁follow	-2411
▁tù	-2412
▁phong	-2413
▁against	-2414
ãi	-2415
▁step	-2416
ying	-2417
▁ye	-2418
▁parent	-2419
▁line	-2420
ental	-2421
▁lãnh	-2422
▁africa	-2423
▁invest	-2424
▁basically	-2425
▁became	-2426
▁miss	-2427
atic	-2428
▁looks	-2429
▁collect	-2430
▁free	-2431
ưng	-2432
ware	-2433
▁adv	-2434
▁works	-2435
▁exactly	-2436
▁dây	-2437
▁vai	-2438
▁nhiễm	-2439
▁tool	-2440
igh	-2441
▁phóng	-2442
ane	-2443
ians	-2444
up	-2445
iddle	-2446
acter	-2447
▁chấp	-2448
utes	-2449
▁tòa	-2450
▁web	-2451
▁mater	-2452
etic	-2453
▁bar	-2454
▁mass	-2455
ặn	-2456
▁kỉ	-2457
▁knew	-2458
▁đêm	-2459
▁11	-2460
▁species	-2461
▁khai	-2462
▁abs	-2463
▁word	-2464
▁quản	-2465
▁success	-2466
▁hại	-2467
▁thê	-2468
▁tri	-2469
ision	-2470
▁questions	-2471
cks	-2472
▁name	-2473
▁dru	-2474
▁prov	-2475
rop	-2476
▁front	-2477
cul	-2478
▁protect	-2479
▁bắc	-2480
▁middle	-2481
▁họa	-2482
▁built	-2483
0.	-2484
▁state	-2485
▁beautiful	-2486
▁ang	-2487
▁tả	-2488
ared	-2489
icult	-2490
▁nuôi	-2491
▁decided	-2492
cc	-2493
ush	-2494
▁sóc	-2495
▁meet	-2496
▁quick	-2497
ươc	-2498
ident	-2499
▁arch	-2500
▁tắc	-2501
▁cập	-2502
▁pot	-2503
▁colle	-2504
▁rối	-2505
▁along	-2506
▁view	-2507
▁goog	-2508
▁yeah	-2509
▁thấp	-2510
▁education	-2511
▁tận	-2512
▁places	-2513
▁kê	-2514
▁ant	-2515
▁bạo	-2516
▁hold	-2517
vious	-2518
▁norm	-2519
▁đừng	-2520
▁taking	-2521
wards	-2522
era	-2523
▁siêu	-2524
ape	-2525
▁leg	-2526
▁society	-2527
▁themselves	-2528
▁hà	-2529
▁oce	-2530
xy	-2531
sy	-2532
▁bại	-2533
▁listen	-2534
aper	-2535
õi	-2536
▁gó	-2537
▁clear	-2538
▁hours	-2539
▁completely	-2540
▁couple	-2541
▁ourselves	-2542
aster	-2543
▁south	-2544
▁students	-2545
▁experim	-2546
▁company	-2547
▁chiều	-2548
▁focus	-2549
▁sóng	-2550
▁difficult	-2551
▁đỡ	-2552
▁super	-2553
▁disease	-2554
▁coll	-2555
▁speak	-2556
▁pred	-2557
ional	-2558
▁hoạch	-2559
li	-2560
▁learning	-2561
▁dàng	-2562
▁gets	-2563
▁meas	-2564
▁during	-2565
▁indust	-2566
▁struct	-2567
▁tín	-2568
▁jour	-2569
que	-2570
ma	-2571
ein	-2572
▁engine	-2573
▁mother	-2574
▁univers	-2575
▁relations	-2576
gest	-2577
▁eur	-2578
▁rev	-2579
▁nông	-2580
▁sun	-2581
▁giai	-2582
▁niên	-2583
▁kĩ	-2584
▁chim	-2585
▁lĩnh	-2586
▁nature	-2587
▁somebody	-2588
▁mot	-2589
▁youll	-2590
▁support	-2591
▁60	-2592
▁xuyên	-2593
▁ngăn	-2594
▁bí	-2595
▁huge	-2596
▁neur	-2597
ides	-2598
▁close	-2599
▁sàng	-2600
▁universe	-2601
▁xo	-2602
▁complex	-2603
▁animals	-2604
▁mess	-2605
▁ele	-2606
▁rather	-2607
▁opportun	-2608
▁google	-2609
ots	-2610
▁phổ	-2611
▁ngờ	-2612
ator	-2613
▁hồ	-2614
▁ident	-2615
▁turns	-2616
ired	-2617
▁appro	-2618
▁âu	-2619
▁chúa	-2620
ầng	-2621
▁gốc	-2622
▁early	-2623
▁itself	-2624
ỉnh	-2625
▁đích	-2626
▁exist	-2627
ưu	-2628
▁trách	-2629
▁sil	-2630
▁trừ	-2631
oss	-2632
urs	-2633
▁piece	-2634
ished	-2635
▁doct	-2636
▁ap	-2637
itting	-2638
▁couldnt	-2639
▁bốn	-2640
▁xếp	-2641
▁lái	-2642
▁máu	-2643
▁tiện	-2644
▁cắt	-2645
ames	-2646
▁dream	-2647
▁bánh	-2648
▁quen	-2649
ological	-2650
▁tầng	-2651
▁wind	-2652
▁death	-2653
ret	-2654
ither	-2655
▁happening	-2656
▁created	-2657
ủy	-2658
face	-2659
▁đợi	-2660
▁song	-2661
ability	-2662
▁thousands	-2663
▁fail	-2664
▁khởi	-2665
▁third	-2666
▁expect	-2667
▁deal	-2668
▁ngàn	-2669
▁ngươi	-2670
▁direct	-2671
▁worked	-2672
▁cir	-2673
▁var	-2674
▁giết	-2675
▁nhắc	-2676
▁short	-2677
▁finally	-2678
▁cáo	-2679
▁full	-2680
▁market	-2681
▁ngân	-2682
▁behav	-2683
haps	-2684
▁includ	-2685
he	-2686
▁perhaps	-2687
▁gấp	-2688
▁reach	-2689
▁lim	-2690
▁recent	-2691
▁common	-2692
▁sho	-2693
▁tấn	-2694
ption	-2695
▁dừng	-2696
▁đảm	-2697
ential	-2698
ney	-2699
▁thơ	-2700
▁inno	-2701
▁land	-2702
ump	-2703
▁lao	-2704
erv	-2705
▁trắng	-2706
▁pa	-2707
▁199	-2708
▁grand	-2709
ples	-2710
▁typ	-2711
▁emot	-2712
▁field	-2713
▁humans	-2714
▁math	-2715
▁ngắn	-2716
elt	-2717
lic	-2718
▁fund	-2719
ased	-2720
▁least	-2721
▁liter	-2722
▁relationship	-2723
ral	-2724
▁gắn	-2725
▁lắm	-2726
▁viol	-2727
ming	-2728
▁tem	-2729
istic	-2730
▁rừng	-2731
▁đỏ	-2732
▁hút	-2733
▁minutes	-2734
▁14	-2735
▁kinds	-2736
▁đổ	-2737
▁systems	-2738
itch	-2739
▁giấy	-2740
▁hát	-2741
▁sens	-2742
▁america	-2743
▁13	-2744
▁god	-2745
▁blood	-2746
▁white	-2747
▁north	-2748
▁patients	-2749
els	-2750
fect	-2751
▁reality	-2752
▁green	-2753
▁eyes	-2754
▁virus	-2755
ination	-2756
▁maj	-2757
▁ple	-2758
▁needs	-2759
▁mạch	-2760
fu	-2761
▁machine	-2762
▁network	-2763
▁ổn	-2764
▁hấp	-2765
▁bott	-2766
▁lưới	-2767
▁amount	-2768
▁natural	-2769
▁fear	-2770
▁non	-2771
▁access	-2772
▁sân	-2773
▁bill	-2774
▁event	-2775
▁parents	-2776
▁arg	-2777
ially	-2778
ains	-2779
▁easy	-2780
▁rich	-2781
ake	-2782
▁80	-2783
▁hoá	-2784
▁american	-2785
▁chem	-2786
ison	-2787
▁buy	-2788
aring	-2789
▁cities	-2790
ium	-2791
▁mùa	-2792
▁chủng	-2793
▁given	-2794
▁takes	-2795
▁nghiêm	-2796
▁mal	-2797
▁fran	-2798
▁wall	-2799
▁mê	-2800
istan	-2801
▁companies	-2802
▁màn	-2803
utions	-2804
èn	-2805
▁cac	-2806
▁fall	-2807
ement	-2808
▁cann	-2809
▁pract	-2810
ibly	-2811
▁chứa	-2812
▁oper	-2813
▁record	-2814
▁sơ	-2815
▁behind	-2816
enn	-2817
mer	-2818
▁surv	-2819
▁khiển	-2820
▁known	-2821
gen	-2822
▁cy	-2823
▁bir	-2824
▁gave	-2825
▁nhảy	-2826
▁yourself	-2827
▁dầu	-2828
▁lá	-2829
▁sym	-2830
▁ir	-2831
▁break	-2832
▁chiếu	-2833
▁famil	-2834
ót	-2835
▁16	-2836
▁felt	-2837
▁stat	-2838
▁century	-2839
▁giây	-2840
▁stay	-2841
ster	-2842
▁cong	-2843
▁chuyến	-2844
▁outside	-2845
▁local	-2846
▁low	-2847
▁present	-2848
▁cơn	-2849
▁tộc	-2850
▁shes	-2851
ply	-2852
▁hands	-2853
▁luy	-2854
▁needed	-2855
idence	-2856
▁leave	-2857
▁near	-2858
▁thải	-2859
▁cut	-2860
▁major	-2861
olved	-2862
▁sông	-2863
ades	-2864
com	-2865
▁chờ	-2866
▁simply	-2867
▁dig	-2868
▁đem	-2869
▁khuẩn	-2870
▁changed	-2871
▁17	-2872
▁serv	-2873
▁mag	-2874
hn	-2875
ode	-2876
▁lam	-2877
▁sent	-2878
▁fly	-2879
▁buộc	-2880
▁impro	-2881
▁taken	-2882
▁culture	-2883
▁carbon	-2884
▁ti	-2885
▁nghị	-2886
▁innov	-2887
inal	-2888
▁cám	-2889
▁flo	-2890
▁đáp	-2891
▁caus	-2892
itions	-2893
▁happy	-2894
▁nhật	-2895
aw	-2896
ler	-2897
▁fac	-2898
▁moving	-2899
ogn	-2900
▁guys	-2901
▁nặng	-2902
▁perfect	-2903
▁seeing	-2904
▁arm	-2905
▁image	-2906
▁luyện	-2907
▁extra	-2908
▁communic	-2909
▁difference	-2910
▁mult	-2911
▁began	-2912
sp	-2913
book	-2914
ived	-2915
▁sle	-2916
▁longer	-2917
▁extre	-2918
▁europe	-2919
▁media	-2920
▁interact	-2921
▁rời	-2922
ature	-2923
▁blue	-2924
▁điên	-2925
▁ocean	-2926
▁tải	-2927
▁trùng	-2928
▁góc	-2929
▁occ	-2930
▁lots	-2931
▁hộp	-2932
▁bur	-2933
▁coi	-2934
▁fish	-2935
òi	-2936
▁ce	-2937
▁ảo	-2938
sych	-2939
oms	-2940
▁ur	-2941
▁recogn	-2942
ik	-2943
▁thắng	-2944
▁chạm	-2945
▁trao	-2946
▁impact	-2947
▁áo	-2948
astic	-2949
▁scientists	-2950
▁hạ	-2951
▁color	-2952
▁ve	-2953
▁fight	-2954
ẩu	-2955
cious	-2956
▁perform	-2957
▁powerful	-2958
aking	-2959
▁trad	-2960
▁quyển	-2961
▁strong	-2962
▁enc	-2963
▁press	-2964
▁repres	-2965
ớm	-2966
by	-2967
▁ess	-2968
▁phẫu	-2969
▁đương	-2970
▁area	-2971
▁buồn	-2972
▁poor	-2973
zy	-2974
▁fem	-2975
▁nóng	-2976
▁emb	-2977
▁uống	-2978
▁climate	-2979
▁political	-2980
▁tránh	-2981
ien	-2982
▁pick	-2983
▁cháu	-2984
▁population	-2985
ror	-2986
▁dĩ	-2987
▁đe	-2988
▁loạn	-2989
ilar	-2990
year	-2991
▁friend	-2992
▁tô	-2993
▁john	-2994
▁chỉnh	-2995
▁psych	-2996
▁sever	-2997
app	-2998
▁special	-2999
▁personal	-3000
▁realized	-3001
êt	-3002
ange	-3003
inary	-3004
verage	-3005
▁cannot	-3006
▁ký	-3007
▁surpr	-3008
▁travel	-3009
▁phù	-3010
▁turned	-3011
▁center	-3012
▁mái	-3013
▁miễn	-3014
ted	-3015
▁convers	-3016
▁national	-3017
▁dark	-3018
▁requ	-3019
eter	-3020
pid	-3021
▁tot	-3022
▁theyve	-3023
acy	-3024
▁ground	-3025
▁ability	-3026
ịp	-3027
▁feet	-3028
▁90	-3029
▁linh	-3030
▁either	-3031
▁civ	-3032
▁camp	-3033
aged	-3034
▁lost	-3035
▁khái	-3036
▁profess	-3037
ấc	-3038
▁đảo	-3039
ony	-3040
▁obs	-3041
▁democ	-3042
▁obvious	-3043
ised	-3044
▁week	-3045
▁lửa	-3046
▁behavior	-3047
ẳn	-3048
▁attention	-3049
▁bom	-3050
▁desc	-3051
▁seven	-3052
▁win	-3053
▁risk	-3054
▁bày	-3055
▁tru	-3056
▁approach	-3057
▁audience	-3058
▁medic	-3059
▁changes	-3060
lu	-3061
uth	-3062
▁70	-3063
▁key	-3064
▁sửa	-3065
▁vân	-3066
▁sat	-3067
▁absol	-3068
▁phone	-3069
▁economic	-3070
▁đám	-3071
▁spend	-3072
end	-3073
anger	-3074
ising	-3075
▁giàu	-3076
▁phil	-3077
▁parts	-3078
▁sum	-3079
▁china	-3080
▁beginning	-3081
▁instit	-3082
▁feeling	-3083
▁kí	-3084
▁mẽ	-3085
hood	-3086
▁tan	-3087
ellig	-3088
▁orig	-3089
▁500	-3090
▁feed	-3091
▁pattern	-3092
iếp	-3093
rodu	-3094
▁hẳn	-3095
▁absolute	-3096
▁consider	-3097
▁eight	-3098
fully	-3099
▁india	-3100
▁tường	-3101
▁born	-3102
▁based	-3103
▁thoát	-3104
rent	-3105
cially	-3106
▁tuyến	-3107
▁leaders	-3108
cif	-3109
▁khuôn	-3110
▁vốn	-3111
▁path	-3112
▁size	-3113
▁girls	-3114
erm	-3115
▁mấy	-3116
▁phận	-3117
▁explain	-3118
ee	-3119
▁gal	-3120
rought	-3121
ression	-3122
ledge	-3123
▁sớm	-3124
▁spent	-3125
▁bene	-3126
▁quickly	-3127
▁whatever	-3128
iving	-3129
▁priv	-3130
ọt	-3131
▁hosp	-3132
ources	-3133
▁bề	-3134
ators	-3135
▁worlds	-3136
▁kim	-3137
▁fast	-3138
▁mảnh	-3139
ibility	-3140
▁terms	-3141
▁street	-3142
▁medical	-3143
ềm	-3144
ried	-3145
▁góp	-3146
▁dest	-3147
▁slow	-3148
izing	-3149
▁respons	-3150
la	-3151
▁similar	-3152
▁khổng	-3153
▁núi	-3154
▁measure	-3155
▁die	-3156
▁weeks	-3157
ann	-3158
▁21	-3159
▁pur	-3160
▁vol	-3161
▁.	-3162
ively	-3163
▁chóng	-3164
▁paper	-3165
▁predict	-3166
▁thảo	-3167
▁transform	-3168
▁lầm	-3169
▁prom	-3170
▁vàng	-3171
▁sleep	-3172
▁tried	-3173
avor	-3174
lish	-3175
▁meaning	-3176
to	-3177
▁eat	-3178
▁ice	-3179
▁tồi	-3180
bor	-3181
▁quên	-3182
▁opportunity	-3183
▁lồ	-3184
ances	-3185
▁redu	-3186
▁neigh	-3187
▁est	-3188
▁rele	-3189
▁online	-3190
▁kid	-3191
▁biên	-3192
▁numbers	-3193
▁situ	-3194
ource	-3195
▁dưỡng	-3196
▁wouldnt	-3197
ored	-3198
▁tổn	-3199
▁prin	-3200
▁trust	-3201
▁father	-3202
▁lũ	-3203
▁box	-3204
▁millions	-3205
▁dõi	-3206
▁hôn	-3207
▁understanding	-3208
▁unf	-3209
▁intellig	-3210
áy	-3211
▁phỏng	-3212
ana	-3213
▁đào	-3214
ped	-3215
▁bọn	-3216
▁insp	-3217
▁điển	-3218
ife	-3219
loy	-3220
▁198	-3221
▁hon	-3222
▁chuột	-3223
▁quần	-3224
▁challenge	-3225
itect	-3226
▁mềm	-3227
ument	-3228
▁dead	-3229
▁mole	-3230
▁scale	-3231
▁architect	-3232
▁hủy	-3233
▁trại	-3234
▁physical	-3235
▁tiểu	-3236
▁dou	-3237
▁opt	-3238
▁suff	-3239
▁gone	-3240
▁value	-3241
▁lẫn	-3242
▁ủng	-3243
ards	-3244
▁huy	-3245
▁mắn	-3246
▁nổ	-3247
▁comb	-3248
▁đươc	-3249
▁consum	-3250
▁likely	-3251
▁growing	-3252
bit	-3253
▁squ	-3254
▁già	-3255
▁stra	-3256
▁tảng	-3257
ateg	-3258
▁bal	-3259
▁conv	-3260
ows	-3261
▁ah	-3262
▁write	-3263
▁surface	-3264
▁hiv	-3265
▁hor	-3266
▁đói	-3267
▁ống	-3268
▁hundreds	-3269
par	-3270
▁tờ	-3271
▁hoảng	-3272
▁morning	-3273
▁post	-3274
▁er	-3275
▁hảo	-3276
▁alone	-3277
▁extreme	-3278
▁sal	-3279
▁dậy	-3280
▁truth	-3281
ex	-3282
▁chậm	-3283
▁vers	-3284
▁xương	-3285
ouch	-3286
▁à	-3287
▁soon	-3288
▁trận	-3289
▁lương	-3290
dden	-3291
▁sam	-3292
▁shows	-3293
▁spread	-3294
▁cop	-3295
▁movement	-3296
▁trì	-3297
▁sea	-3298
▁quỹ	-3299
▁rơi	-3300
▁vững	-3301
▁sudden	-3302
▁individual	-3303
▁cris	-3304
▁growth	-3305
▁current	-3306
▁oxy	-3307
▁liệt	-3308
▁sn	-3309
bi	-3310
ered	-3311
▁tur	-3312
▁pull	-3313
▁răng	-3314
▁seems	-3315
▁sitting	-3316
▁lạnh	-3317
▁fire	-3318
▁affect	-3319
ama	-3320
ove	-3321
▁2000	-3322
▁chảy	-3323
▁log	-3324
sh	-3325
▁ach	-3326
▁lif	-3327
ipp	-3328
▁vơi	-3329
▁cool	-3330
▁điêu	-3331
▁development	-3332
▁average	-3333
▁hãi	-3334
▁camera	-3335
▁arr	-3336
▁mãi	-3337
▁civil	-3338
▁chuỗi	-3339
▁hài	-3340
▁images	-3341
▁structure	-3342
aly	-3343
.000	-3344
▁areas	-3345
▁relig	-3346
▁voice	-3347
entially	-3348
▁brought	-3349
▁vỡ	-3350
▁star	-3351
▁anyone	-3352
▁giving	-3353
oph	-3354
▁mov	-3355
▁điệu	-3356
▁nghìn	-3357
▁wonderful	-3358
▁incredible	-3359
xic	-3360
ban	-3361
▁đê	-3362
▁môn	-3363
▁tools	-3364
▁nắm	-3365
▁oil	-3366
▁email	-3367
50	-3368
oun	-3369
▁giỏi	-3370
▁smart	-3371
▁film	-3372
▁tách	-3373
▁tốn	-3374
▁conc	-3375
▁scre	-3376
▁specif	-3377
▁experiment	-3378
▁text	-3379
▁knowledge	-3380
▁rul	-3381
▁chris	-3382
of	-3383
▁gene	-3384
▁road	-3385
▁realize	-3386
▁draw	-3387
▁kịch	-3388
ills	-3389
ified	-3390
▁giấc	-3391
▁món	-3392
▁vac	-3393
▁baby	-3394
▁giọng	-3395
▁quang	-3396
▁compet	-3397
▁los	-3398
▁phối	-3399
▁telling	-3400
▁lộ	-3401
▁nan	-3402
▁technolog	-3403
▁đỉnh	-3404
let	-3405
▁aw	-3406
▁cỡ	-3407
▁300	-3408
▁hot	-3409
une	-3410
▁24	-3411
▁dom	-3412
▁lặp	-3413
▁chiếm	-3414
▁dường	-3415
▁ngừng	-3416
▁tv	-3417
▁tụ	-3418
▁sounds	-3419
arr	-3420
▁espe	-3421
▁wont	-3422
▁especially	-3423
ẹn	-3424
gress	-3425
yn	-3426
asc	-3427
▁sót	-3428
▁depe	-3429
▁park	-3430
hor	-3431
ials	-3432
▁safe	-3433
▁stru	-3434
▁benef	-3435
ặm	-3436
▁tom	-3437
▁literally	-3438
▁bảng	-3439
▁circ	-3440
▁type	-3441
ùa	-3442
▁ult	-3443
▁hang	-3444
▁interested	-3445
▁div	-3446
▁suất	-3447
▁polic	-3448
▁represent	-3449
▁favor	-3450
▁economy	-3451
▁vợ	-3452
▁cầm	-3453
▁invent	-3454
▁vĩ	-3455
ứt	-3456
▁ong	-3457
▁soft	-3458
▁react	-3459
▁wrote	-3460
▁facebook	-3461
▁communities	-3462
▁lay	-3463
▁khoản	-3464
▁khích	-3465
ãn	-3466
▁chào	-3467
▁books	-3468
▁plant	-3469
▁starting	-3470
▁khứ	-3471
▁thừa	-3472
▁report	-3473
▁material	-3474
ival	-3475
▁bey	-3476
▁crit	-3477
ock	-3478
▁mời	-3479
▁main	-3480
▁forward	-3481
▁developed	-3482
▁photograph	-3483
▁đèn	-3484
▁cause	-3485
▁solve	-3486
ero	-3487
▁arent	-3488
▁stress	-3489
▁serious	-3490
ency	-3491
▁sáu	-3492
lex	-3493
▁nice	-3494
▁tiny	-3495
▁lỗ	-3496
▁chó	-3497
▁tàn	-3498
▁evolution	-3499
ify	-3500
por	-3501
▁guess	-3502
▁fundam	-3503
ites	-3504
ister	-3505
▁đế	-3506
port	-3507
ther	-3508
▁hiển	-3509
ustain	-3510
ilities	-3511
▁normal	-3512
▁activ	-3513
▁asking	-3514
▁bottom	-3515
▁chance	-3516
▁discovered	-3517
▁revolution	-3518
▁save	-3519
▁dam	-3520
▁tiềm	-3521
▁fur	-3522
▁worth	-3523
▁mũ	-3524
ique	-3525
▁stage	-3526
asing	-3527
▁boy	-3528
▁afgh	-3529
fer	-3530
▁sạch	-3531
▁modern	-3532
▁quảng	-3533
▁beyond	-3534
▁playing	-3535
ram	-3536
▁cit	-3537
▁drop	-3538
▁thai	-3539
▁recently	-3540
▁tradition	-3541
▁absolutely	-3542
▁nghỉ	-3543
▁among	-3544
▁trồng	-3545
▁running	-3546
▁ồ	-3547
ggest	-3548
▁ball	-3549
▁suggest	-3550
▁bè	-3551
▁ast	-3552
▁pan	-3553
▁choice	-3554
▁foot	-3555
ensive	-3556
▁industry	-3557
▁bền	-3558
▁dan	-3559
▁led	-3560
▁chàng	-3561
edi	-3562
▁wed	-3563
▁english	-3564
amm	-3565
▁lea	-3566
▁touch	-3567
▁creating	-3568
▁hào	-3569
▁mount	-3570
▁towards	-3571
▁several	-3572
▁force	-3573
▁hổ	-3574
▁ưu	-3575
iger	-3576
yearold	-3577
▁afghan	-3578
▁jobs	-3579
▁chồng	-3580
▁groups	-3581
chan	-3582
▁issues	-3583
▁rece	-3584
▁calif	-3585
▁hỏa	-3586
▁vill	-3587
▁thước	-3588
▁changing	-3589
iod	-3590
▁rate	-3591
uals	-3592
▁eth	-3593
▁tas	-3594
▁issue	-3595
▁thuận	-3596
▁californ	-3597
▁digital	-3598
▁rock	-3599
▁theory	-3600
▁ec	-3601
▁chấm	-3602
usion	-3603
▁bacter	-3604
ndon	-3605
▁bơi	-3606
▁achie	-3607
▁1.	-3608
ining	-3609
itter	-3610
fort	-3611
▁dặm	-3612
▁nghề	-3613
▁cờ	-3614
▁map	-3615
others	-3616
▁solution	-3617
▁je	-3618
ught	-3619
▁tắt	-3620
▁clos	-3621
▁gives	-3622
▁whos	-3623
▁animal	-3624
▁attack	-3625
▁rights	-3626
▁port	-3627
▁period	-3628
▁electric	-3629
▁trầm	-3630
sc	-3631
▁nguyện	-3632
▁technologies	-3633
▁bật	-3634
▁nha	-3635
▁california	-3636
ngth	-3637
▁bữa	-3638
▁gió	-3639
odies	-3640
▁cars	-3641
▁nobody	-3642
▁general	-3643
áp	-3644
bol	-3645
▁197	-3646
▁forest	-3647
▁lối	-3648
▁tele	-3649
ishing	-3650
▁showed	-3651
▁sustain	-3652
▁evidence	-3653
▁capt	-3654
▁breat	-3655
▁concept	-3656
iction	-3657
▁bed	-3658
▁grad	-3659
▁đẳng	-3660
▁eye	-3661
▁diệu	-3662
▁search	-3663
▁designed	-3664
▁neg	-3665
▁patient	-3666
▁citiz	-3667
▁university	-3668
▁bờ	-3669
▁vê	-3670
▁ơ	-3671
▁thưởng	-3672
▁produce	-3673
▁protein	-3674
▁developing	-3675
▁eventually	-3676
▁sánh	-3677
▁khoảnh	-3678
▁account	-3679
▁fair	-3680
▁drive	-3681
▁subject	-3682
ug	-3683
▁cat	-3684
▁lat	-3685
▁mathem	-3686
cr	-3687
▁basic	-3688
▁speed	-3689
▁conscious	-3690
▁né	-3691
idge	-3692
omet	-3693
▁son	-3694
▁thăm	-3695
▁miles	-3696
▁becomes	-3697
▁potential	-3698
ada	-3699
▁thuy	-3700
▁thảm	-3701
▁mechan	-3702
▁resources	-3703
▁avail	-3704
▁except	-3705
eth	-3706
▁nỗ	-3707
▁solar	-3708
▁bigger	-3709
room	-3710
▁don	-3711
▁hit	-3712
▁clean	-3713
▁generation	-3714
ãy	-3715
▁viễn	-3716
▁violence	-3717
▁poll	-3718
▁xoay	-3719
isions	-3720
▁kháng	-3721
▁brains	-3722
▁rút	-3723
▁danger	-3724
▁london	-3725
▁computers	-3726
▁tar	-3727
▁thở	-3728
ged	-3729
urity	-3730
▁however	-3731
ựng	-3732
▁action	-3733
▁bụ	-3734
▁ly	-3735
▁syn	-3736
▁nâng	-3737
▁cover	-3738
▁journey	-3739
▁memory	-3740
▁threat	-3741
▁thù	-3742
▁vết	-3743
▁khóa	-3744
▁west	-3745
▁visual	-3746
unt	-3747
▁send	-3748
▁mob	-3749
▁sợi	-3750
▁emerg	-3751
▁table	-3752
▁function	-3753
▁hospital	-3754
▁túi	-3755
▁cứng	-3756
ned	-3757
ude	-3758
come	-3759
▁gas	-3760
▁tật	-3761
▁capital	-3762
▁college	-3763
▁peoples	-3764
cked	-3765
▁flu	-3766
▁lad	-3767
▁ngài	-3768
▁đăng	-3769
ops	-3770
ucle	-3771
▁kém	-3772
▁khuy	-3773
▁tròn	-3774
▁đuổi	-3775
▁drugs	-3776
▁rules	-3777
▁hùng	-3778
aughter	-3779
▁flow	-3780
▁knows	-3781
▁400	-3782
▁lục	-3783
▁meth	-3784
▁thiệu	-3785
▁trưng	-3786
▁progress	-3787
▁thịt	-3788
▁phiên	-3789
▁including	-3790
▁necess	-3791
▁voi	-3792
▁talked	-3793
▁nhé	-3794
▁choose	-3795
ges	-3796
iti	-3797
▁sky	-3798
antly	-3799
▁skin	-3800
▁river	-3801
▁196	-3802
▁particip	-3803
eed	-3804
anda	-3805
▁ghế	-3806
▁ngại	-3807
▁lived	-3808
▁chemical	-3809
▁alg	-3810
▁diag	-3811
▁conversation	-3812
▁deg	-3813
arily	-3814
▁rang	-3815
▁peace	-3816
▁writing	-3817
▁situation	-3818
▁adm	-3819
▁ngư	-3820
▁dav	-3821
▁drug	-3822
▁nucle	-3823
po	-3824
ips	-3825
▁ghép	-3826
▁king	-3827
▁mich	-3828
▁plants	-3829
▁washing	-3830
▁neighbor	-3831
▁available	-3832
jo	-3833
▁vỏ	-3834
lict	-3835
▁gợi	-3836
ously	-3837
▁sell	-3838
▁giám	-3839
▁làng	-3840
▁đoàn	-3841
▁ready	-3842
ọa	-3843
ration	-3844
▁christ	-3845
onse	-3846
▁sốt	-3847
▁1000	-3848
▁thủy	-3849
▁accept	-3850
osph	-3851
▁ken	-3852
▁died	-3853
▁youd	-3854
▁reasons	-3855
▁afghanistan	-3856
▁hung	-3857
▁nhẹ	-3858
▁chặn	-3859
▁wait	-3860
▁deliver	-3861
▁results	-3862
▁families	-3863
▁higher	-3864
erve	-3865
▁hoàng	-3866
cuss	-3867
erent	-3868
iding	-3869
▁birth	-3870
ires	-3871
▁mis	-3872
▁apart	-3873
▁office	-3874
▁pal	-3875
▁tán	-3876
▁freed	-3877
▁vision	-3878
▁sand	-3879
▁thang	-3880
ủi	-3881
oud	-3882
son	-3883
▁deb	-3884
phone	-3885
▁role	-3886
▁tuyên	-3887
▁character	-3888
▁pen	-3889
▁farm	-3890
▁hoang	-3891
racy	-3892
▁thuyền	-3893
▁cà	-3894
abor	-3895
oring	-3896
▁shape	-3897
ze	-3898
▁jud	-3899
▁luck	-3900
▁infect	-3901
▁corn	-3902
▁loạt	-3903
▁incredibly	-3904
▁căng	-3905
▁tend	-3906
▁trống	-3907
ya	-3908
ìa	-3909
iar	-3910
ief	-3911
▁vict	-3912
▁schools	-3913
▁xứng	-3914
▁improve	-3915
▁trữ	-3916
▁phấn	-3917
▁walking	-3918
uss	-3919
▁fix	-3920
▁fill	-3921
▁defin	-3922
▁message	-3923
▁putting	-3924
akes	-3925
bert	-3926
verty	-3927
▁shif	-3928
▁continue	-3929
▁innovation	-3930
▁push	-3931
▁detect	-3932
zz	-3933
▁games	-3934
▁havent	-3935
ói	-3936
▁cản	-3937
inese	-3938
ậc	-3939
zil	-3940
▁tit	-3941
▁đằng	-3942
▁doctors	-3943
▁response	-3944
▁international	-3945
▁gold	-3946
▁cross	-3947
▁bodies	-3948
bb	-3949
erson	-3950
▁starts	-3951
▁intelligence	-3952
▁lễ	-3953
▁móc	-3954
▁chặt	-3955
▁poverty	-3956
▁ann	-3957
▁princi	-3958
▁security	-3959
▁fa	-3960
iếng	-3961
▁bậc	-3962
▁lược	-3963
▁nhắn	-3964
▁sold	-3965
▁crazy	-3966
▁brazil	-3967
▁colleag	-3968
ley	-3969
▁cú	-3970
▁code	-3971
▁khảo	-3972
▁notice	-3973
▁please	-3974
▁ham	-3975
▁door	-3976
iences	-3977
▁machines	-3978
▁pictures	-3979
▁lọc	-3980
▁robots	-3981
▁compass	-3982
▁geor	-3983
▁nine	-3984
▁strugg	-3985
▁scientific	-3986
like	-3987
▁kil	-3988
▁minds	-3989
▁chinese	-3990
▁manh	-3991
▁wild	-3992
▁lower	-3993
ũng	-3994
▁dar	-3995
▁phê	-3996
▁desp	-3997
▁strateg	-3998
▁hắn	-3999
▁repl	-4000
▁webs	-4001
▁perspect	-4002
▁tị	-4003
▁brit	-4004
▁virt	-4005
▁interv	-4006
▁twitter	-4007
▁involved	-4008
cient	-4009
▁further	-4010
▁certainly	-4011
rible	-4012
▁return	-4013
▁african	-4014
▁lặng	-4015
rage	-4016
▁ine	-4017
ground	-4018
▁particularly	-4019
for	-4020
nal	-4021
▁dị	-4022
▁mại	-4023
▁pin	-4024
▁biggest	-4025
▁lành	-4026
▁cases	-4027
rap	-4028
▁rác	-4029
▁tóc	-4030
▁above	-4031
▁labor	-4032
▁meant	-4033
▁named	-4034
▁treatment	-4035
itten	-4036
light	-4037
▁đựng	-4038
▁prison	-4039
▁objects	-4040
ỡi	-4041
▁thr	-4042
▁bank	-4043
▁moved	-4044
▁president	-4045
▁pet	-4046
▁multip	-4047
ườn	-4048
▁adult	-4049
▁screen	-4050
▁healthy	-4051
▁decision	-4052
▁suddenly	-4053
▁everywhere	-4054
▁dọa	-4055
▁mir	-4056
▁cold	-4057
▁worse	-4058
▁daughter	-4059
▁medicine	-4060
uit	-4061
▁prim	-4062
▁separ	-4063
▁indeed	-4064
▁bacteria	-4065
ech	-4066
ressed	-4067
▁device	-4068
ext	-4069
▁link	-4070
▁assum	-4071
oles	-4072
▁súng	-4073
▁huống	-4074
cape	-4075
▁blog	-4076
▁grew	-4077
▁radio	-4078
▁waste	-4079
wood	-4080
▁complic	-4081
▁favorite	-4082
▁din	-4083
▁hop	-4084
▁finan	-4085
▁immedi	-4086
▁finding	-4087
ica	-4088
▁van	-4089
▁clin	-4090
▁coun	-4091
▁diệt	-4092
▁usually	-4093
▁extraord	-4094
▁obviously	-4095
rast	-4096
▁khẩu	-4097
▁aware	-4098
▁appear	-4099
▁examples	-4100
▁standing	-4101
▁stars	-4102
ims	-4103
oming	-4104
▁harv	-4105
▁trào	-4106
▁điệp	-4107
▁detail	-4108
▁police	-4109
ring	-4110
soci	-4111
▁watching	-4112
▁individuals	-4113
▁săn	-4114
▁chép	-4115
▁rand	-4116
▁vong	-4117
▁conflict	-4118
▁lose	-4119
▁doctor	-4120
sequ	-4121
▁goal	-4122
▁nhịp	-4123
▁secret	-4124
▁square	-4125
▁taught	-4126
▁allowed	-4127
▁creative	-4128
▁supposed	-4129
▁ep	-4130
▁ger	-4131
▁hải	-4132
▁island	-4133
▁increase	-4134
▁positive	-4135
▁employ	-4136
▁faster	-4137
▁imposs	-4138
ners	-4139
▁sus	-4140
▁influ	-4141
▁ngang	-4142
men	-4143
▁lãng	-4144
▁khung	-4145
▁introdu	-4146
▁kiệm	-4147
▁nhựa	-4148
▁term	-4149
▁wish	-4150
▁showing	-4151
▁ultimate	-4152
ớt	-4153
ured	-4154
▁đùa	-4155
▁training	-4156
▁organization	-4157
oid	-4158
▁hur	-4159
▁carry	-4160
▁freedom	-4161
▁decisions	-4162
▁compassion	-4163
▁vây	-4164
imens	-4165
▁magn	-4166
▁onto	-4167
▁crisis	-4168
▁teachers	-4169
▁hyd	-4170
▁wants	-4171
▁connected	-4172
ax	-4173
ese	-4174
▁họp	-4175
▁thao	-4176
▁hom	-4177
▁tia	-4178
▁east	-4179
▁concer	-4180
▁anybody	-4181
▁totally	-4182
▁unfortun	-4183
▁ran	-4184
▁yên	-4185
▁expert	-4186
▁quality	-4187
▁studies	-4188
pped	-4189
▁mùi	-4190
▁card	-4191
▁mars	-4192
▁rain	-4193
▁tells	-4194
▁signific	-4195
▁spir	-4196
▁context	-4197
▁washington	-4198
ox	-4199
cis	-4200
▁nhuận	-4201
▁humanity	-4202
▁ác	-4203
▁đạp	-4204
▁hiếm	-4205
▁female	-4206
▁democracy	-4207
ued	-4208
▁cặp	-4209
▁mist	-4210
how	-4211
▁đam	-4212
▁ngọn	-4213
▁tàng	-4214
▁hương	-4215
▁trees	-4216
▁mental	-4217
▁fundamental	-4218
ny	-4219
cise	-4220
▁mừng	-4221
▁software	-4222
icient	-4223
izations	-4224
▁collabor	-4225
▁rẻ	-4226
▁xạ	-4227
iệng	-4228
ently	-4229
▁late	-4230
▁thận	-4231
iation	-4232
▁associ	-4233
▁largest	-4234
umb	-4235
▁bối	-4236
itary	-4237
▁khía	-4238
▁ngẫu	-4239
▁thác	-4240
▁loved	-4241
▁shown	-4242
▁35	-4243
more	-4244
▁student	-4245
cl	-4246
▁atm	-4247
▁cry	-4248
▁ira	-4249
▁đòi	-4250
▁genes	-4251
▁genetic	-4252
▁essentially	-4253
xi	-4254
▁fort	-4255
▁paul	-4256
▁thỏa	-4257
▁track	-4258
osphere	-4259
▁temper	-4260
▁ben	-4261
▁beat	-4262
▁corre	-4263
▁david	-4264
▁mexic	-4265
▁materials	-4266
▁recognize	-4267
▁impossible	-4268
▁tuệ	-4269
cules	-4270
▁thoải	-4271
ruction	-4272
bes	-4273
0000	-4274
▁cục	-4275
▁movie	-4276
▁governments	-4277
▁disapp	-4278
ôc	-4279
▁ign	-4280
▁đập	-4281
ission	-4282
▁doc	-4283
▁mưa	-4284
▁successful	-4285
▁bổ	-4286
ounds	-4287
▁cart	-4288
▁thưc	-4289
▁blind	-4290
▁unique	-4291
▁reading	-4292
▁ara	-4293
▁tree	-4294
▁trứng	-4295
▁canada	-4296
▁thờ	-4297
▁ám	-4298
▁liber	-4299
▁older	-4300
▁specific	-4301
▁somewhere	-4302
▁giận	-4303
▁mine	-4304
▁buildings	-4305
▁conditions	-4306
ara	-4307
uge	-4308
ping	-4309
▁sequ	-4310
▁sổ	-4311
▁theyll	-4312
▁citizens	-4313
▁perspective	-4314
go	-4315
▁mét	-4316
ulate	-4317
▁miệng	-4318
▁tỏ	-4319
▁print	-4320
▁models	-4321
éo	-4322
▁kêu	-4323
▁đên	-4324
▁heav	-4325
▁truly	-4326
▁determ	-4327
▁2.	-4328
▁mai	-4329
▁decades	-4330
ef	-4331
▁jap	-4332
▁rom	-4333
▁stick	-4334
▁activity	-4335
win	-4336
▁23	-4337
▁bò	-4338
▁bảy	-4339
▁lands	-4340
▁launch	-4341
▁exciting	-4342
▁inh	-4343
▁hell	-4344
úa	-4345
▁glass	-4346
▁manag	-4347
▁trích	-4348
▁service	-4349
▁kept	-4350
▁policy	-4351
▁journal	-4352
nded	-4353
▁mạc	-4354
▁match	-4355
▁passion	-4356
lier	-4357
▁chán	-4358
▁race	-4359
▁niger	-4360
▁trăng	-4361
▁throughout	-4362
icle	-4363
▁xâm	-4364
▁phán	-4365
▁skills	-4366
▁extremely	-4367
bu	-4368
bel	-4369
rep	-4370
uct	-4371
▁mos	-4372
▁hall	-4373
▁town	-4374
▁lines	-4375
▁thánh	-4376
▁source	-4377
▁discuss	-4378
fact	-4379
▁bãi	-4380
▁fant	-4381
▁hair	-4382
▁zero	-4383
▁japan	-4384
▁remind	-4385
▁provide	-4386
▁respect	-4387
ùi	-4388
atory	-4389
stein	-4390
▁vacc	-4391
▁terror	-4392
ches	-4393
▁upon	-4394
▁pressure	-4395
▁hè	-4396
▁fit	-4397
▁complicated	-4398
iet	-4399
▁huấn	-4400
▁iran	-4401
▁purp	-4402
▁wife	-4403
inated	-4404
▁offic	-4405
▁products	-4406
ớp	-4407
amp	-4408
▁mây	-4409
▁thạch	-4410
▁nô	-4411
isms	-4412
ston	-4413
▁swe	-4414
▁cook	-4415
▁author	-4416
▁mathemat	-4417
▁laugh	-4418
▁consequ	-4419
▁diseases	-4420
enom	-4421
▁dad	-4422
▁tor	-4423
▁pack	-4424
▁method	-4425
▁ngoái	-4426
▁beings	-4427
▁effort	-4428
▁website	-4429
▁written	-4430
ob	-4431
dom	-4432
med	-4433
▁nơ	-4434
▁thuê	-4435
▁plastic	-4436
▁somehow	-4437
▁straight	-4438
▁hỗn	-4439
▁forms	-4440
▁allows	-4441
▁central	-4442
▁patterns	-4443
ball	-4444
▁hey	-4445
▁alth	-4446
▁transl	-4447
▁excited	-4448
▁position	-4449
▁extraordinary	-4450
vert	-4451
▁adap	-4452
▁roll	-4453
▁diagn	-4454
▁refuge	-4455
▁weight	-4456
▁prevent	-4457
▁reflect	-4458
▁happiness	-4459
tu	-4460
iced	-4461
▁lắp	-4462
▁electr	-4463
▁practice	-4464
▁increasing	-4465
▁hiệp	-4466
▁iraq	-4467
▁nhằm	-4468
▁phiếu	-4469
▁quant	-4470
▁remark	-4471
▁45	-4472
inct	-4473
rael	-4474
▁noi	-4475
▁hero	-4476
▁male	-4477
▁achieve	-4478
▁strange	-4479
▁although	-4480
emic	-4481
▁chối	-4482
▁enjo	-4483
▁liền	-4484
▁trick	-4485
▁đảng	-4486
▁afford	-4487
▁challenges	-4488
ays	-4489
▁rủi	-4490
▁autom	-4491
▁urban	-4492
▁helped	-4493
▁larger	-4494
▁projects	-4495
ăt	-4496
▁bắn	-4497
▁mực	-4498
▁wealth	-4499
▁physics	-4500
▁experiences	-4501
▁ức	-4502
rial	-4503
▁mit	-4504
▁drink	-4505
▁oppos	-4506
▁types	-4507
▁comfort	-4508
▁unfortunately	-4509
ales	-4510
sect	-4511
▁biện	-4512
▁levels	-4513
▁remain	-4514
ologists	-4515
▁listening	-4516
▁thợ	-4517
orith	-4518
▁kiên	-4519
atives	-4520
erence	-4521
▁block	-4522
▁forget	-4523
▁contrib	-4524
▁algorith	-4525
▁solutions	-4526
▁bê	-4527
▁cãi	-4528
▁series	-4529
▁despite	-4530
▁electron	-4531
▁cột	-4532
▁dai	-4533
▁frank	-4534
aries	-4535
▁anyway	-4536
▁traditional	-4537
back	-4538
used	-4539
▁trôi	-4540
▁10000	-4541
ĩa	-4542
oke	-4543
▁binh	-4544
▁thiểu	-4545
fl	-4546
ka	-4547
▁fasc	-4548
▁tỉnh	-4549
▁magic	-4550
▁pieces	-4551
▁slide	-4552
▁demand	-4553
▁descri	-4554
▁israel	-4555
▁killed	-4556
▁mexico	-4557
▁mention	-4558
▁fine	-4559
▁none	-4560
▁miếng	-4561
▁worry	-4562
▁werent	-4563
mp	-4564
▁dối	-4565
▁tun	-4566
▁dày	-4567
▁aust	-4568
▁bunch	-4569
▁minute	-4570
▁shared	-4571
▁earlier	-4572
▁francis	-4573
▁gree	-4574
▁plat	-4575
▁points	-4576
▁nuclear	-4577
▁smaller	-4578
èm	-4579
▁whe	-4580
▁thấu	-4581
▁catch	-4582
ba	-4583
ett	-4584
▁ut	-4585
itted	-4586
▁biêt	-4587
▁prep	-4588
uments	-4589
▁alive	-4590
▁check	-4591
▁graph	-4592
▁amazon	-4593
▁anymore	-4594
ky	-4595
▁mò	-4596
ford	-4597
attle	-4598
▁tiss	-4599
▁đống	-4600
▁ended	-4601
▁spect	-4602
ham	-4603
▁final	-4604
▁store	-4605
▁content	-4606
▁himself	-4607
▁village	-4608
▁sad	-4609
▁base	-4610
▁jump	-4611
▁khát	-4612
▁tràn	-4613
▁choices	-4614
▁services	-4615
▁dangerous	-4616
▁mut	-4617
istics	-4618
▁board	-4619
▁whose	-4620
▁sexual	-4621
▁neurons	-4622
asa	-4623
lebr	-4624
estern	-4625
▁babies	-4626
▁clearly	-4627
▁distrib	-4628
▁financial	-4629
▁giơ	-4630
▁laws	-4631
▁throw	-4632
▁nearly	-4633
▁thanks	-4634
▁planets	-4635
▁willing	-4636
▁workers	-4637
col	-4638
▁tá	-4639
▁mid	-4640
▁celebr	-4641
▁ancient	-4642
▁military	-4643
aced	-4644
▁tạm	-4645
▁broad	-4646
▁huyết	-4647
▁german	-4648
▁address	-4649
▁waiting	-4650
▁experien	-4651
▁americans	-4652
rew	-4653
▁nút	-4654
▁thổ	-4655
▁loss	-4656
▁moon	-4657
▁greatest	-4658
▁anal	-4659
▁electricity	-4660
ios	-4661
▁mad	-4662
▁ver	-4663
▁ghét	-4664
▁surve	-4665
▁khuyến	-4666
▁describ	-4667
▁becoming	-4668
▁tò	-4669
▁hẹn	-4670
▁mũi	-4671
▁narr	-4672
▁sick	-4673
▁famous	-4674
▁hồn	-4675
▁nut	-4676
▁khấu	-4677
▁biology	-4678
▁massive	-4679
▁critical	-4680
egr	-4681
▁đài	-4682
verse	-4683
▁giảng	-4684
ec	-4685
▁exh	-4686
▁rượ	-4687
▁sorts	-4688
▁institutions	-4689
str	-4690
▁béo	-4691
▁lừa	-4692
▁đốt	-4693
▁cháy	-4694
▁triết	-4695
▁beauty	-4696
▁career	-4697
▁architecture	-4698
▁cỏ	-4699
resh	-4700
▁nhấn	-4701
▁angel	-4702
▁smell	-4703
▁neighborhood	-4704
▁côn	-4705
▁den	-4706
▁surg	-4707
▁trade	-4708
▁random	-4709
▁relationships	-4710
rene	-4711
▁nêu	-4712
▁ngón	-4713
▁rượu	-4714
▁occur	-4715
▁propert	-4716
ander	-4717
▁apple	-4718
▁apply	-4719
▁encou	-4720
▁kenya	-4721
▁actual	-4722
▁causes	-4723
▁greater	-4724
▁teacher	-4725
▁effective	-4726
▁expensive	-4727
▁hus	-4728
▁rid	-4729
▁vườn	-4730
▁khiếp	-4731
▁speaking	-4732
ria	-4733
▁cỗ	-4734
band	-4735
▁ein	-4736
▁lộn	-4737
▁chẩn	-4738
▁cust	-4739
▁philos	-4740
aur	-4741
ino	-4742
rupt	-4743
▁tám	-4744
▁surround	-4745
mend	-4746
▁cru	-4747
epend	-4748
▁gương	-4749
▁75	-4750
▁yell	-4751
▁income	-4752
▁familiar	-4753
▁emotional	-4754
put	-4755
ceed	-4756
▁chốt	-4757
inating	-4758
▁ngưỡng	-4759
▁region	-4760
▁respond	-4761
key	-4762
▁ju	-4763
▁kẹ	-4764
lant	-4765
▁fat	-4766
orrow	-4767
▁alex	-4768
▁xong	-4769
itation	-4770
▁cai	-4771
▁mèo	-4772
order	-4773
▁boys	-4774
▁hiến	-4775
▁thầy	-4776
▁interview	-4777
▁thây	-4778
▁justice	-4779
▁politics	-4780
▁environmental	-4781
▁vú	-4782
▁unc	-4783
▁phai	-4784
▁trou	-4785
▁western	-4786
▁22	-4787
▁mostly	-4788
▁thượng	-4789
▁popular	-4790
▁painting	-4791
▁standard	-4792
▁immediately	-4793
ợt	-4794
▁sỹ	-4795
ging	-4796
▁hous	-4797
▁lính	-4798
▁destro	-4799
▁therefore	-4800
dp	-4801
▁ả	-4802
▁lẻ	-4803
▁cla	-4804
▁mas	-4805
enomen	-4806
▁gender	-4807
▁mobile	-4808
▁effects	-4809
iven	-4810
iling	-4811
▁harm	-4812
▁party	-4813
▁physic	-4814
▁knowing	-4815
▁members	-4816
▁directly	-4817
▁phenomen	-4818
▁transport	-4819
▁ấm	-4820
▁túc	-4821
▁shap	-4822
▁site	-4823
▁range	-4824
▁honest	-4825
▁driving	-4826
▁colleagues	-4827
▁hứa	-4828
▁page	-4829
ius	-4830
met	-4831
oll	-4832
▁rise	-4833
▁costs	-4834
▁cường	-4835
▁societ	-4836
▁values	-4837
▁identity	-4838
lin	-4839
▁mr	-4840
▁cấy	-4841
▁dọc	-4842
▁lưng	-4843
▁shot	-4844
▁tiêm	-4845
▁answers	-4846
ớn	-4847
itor	-4848
eless	-4849
itude	-4850
▁trốn	-4851
▁molecules	-4852
ago	-4853
▁mĩ	-4854
▁joy	-4855
▁muse	-4856
▁molec	-4857
▁useful	-4858
▁bon	-4859
▁vao	-4860
▁ax	-4861
iber	-4862
▁gay	-4863
▁leo	-4864
▁thả	-4865
▁arab	-4866
▁ngầm	-4867
▁quán	-4868
▁dance	-4869
▁walked	-4870
▁streets	-4871
▁terrible	-4872
ăc	-4873
airs	-4874
▁inj	-4875
vision	-4876
▁nation	-4877
▁target	-4878
▁express	-4879
▁direction	-4880
▁ko	-4881
wise	-4882
▁nhỉ	-4883
▁aids	-4884
▁dinh	-4885
▁feels	-4886
fr	-4887
▁0	-4888
igr	-4889
▁tóm	-4890
▁đĩa	-4891
▁khóc	-4892
▁lỏng	-4893
▁gradu	-4894
▁decide	-4895
▁oxygen	-4896
▁meeting	-4897
olve	-4898
▁cốt	-4899
▁ném	-4900
inate	-4901
▁chấn	-4902
▁enjoy	-4903
▁thiệp	-4904
atically	-4905
▁researchers	-4906
▁lây	-4907
▁ten	-4908
▁vast	-4909
▁slight	-4910
▁addition	-4911
▁performance	-4912
bur	-4913
yle	-4914
▁đà	-4915
▁egg	-4916
▁rập	-4917
▁rắc	-4918
▁giam	-4919
▁hole	-4920
▁museum	-4921
▁version	-4922
▁instance	-4923
▁gun	-4924
▁mập	-4925
▁que	-4926
▁moral	-4927
▁nigeria	-4928
▁anywhere	-4929
▁connection	-4930
▁organizations	-4931
▁rồ	-4932
▁bạc	-4933
▁xưa	-4934
▁fuel	-4935
▁ahead	-4936
▁summer	-4937
▁private	-4938
▁condition	-4939
▁bó	-4940
uted	-4941
▁vul	-4942
▁đắt	-4943
▁broken	-4944
▁expand	-4945
▁integr	-4946
▁spirit	-4947
▁thoảng	-4948
sem	-4949
term	-4950
▁150	-4951
▁mạo	-4952
aling	-4953
▁rare	-4954
▁tĩnh	-4955
▁chinh	-4956
▁worst	-4957
▁divers	-4958
▁gar	-4959
▁bùng	-4960
▁calcul	-4961
▁histor	-4962
ulf	-4963
▁viê	-4964
▁đua	-4965
acity	-4966
oting	-4967
▁raise	-4968
ologist	-4969
▁seconds	-4970
▁survive	-4971
▁gỗ	-4972
▁ug	-4973
▁gdp	-4974
▁gọn	-4975
▁táo	-4976
▁forth	-4977
▁following	-4978
▁depression	-4979
▁mộ	-4980
▁mãn	-4981
▁resist	-4982
▁ép	-4983
▁viêc	-4984
▁enorm	-4985
▁youtu	-4986
▁george	-4987
▁purpose	-4988
ượn	-4989
▁dog	-4990
▁sụp	-4991
▁teen	-4992
▁reduce	-4993
▁óc	-4994
aign	-4995
▁khô	-4996
▁tum	-4997
▁grav	-4998
▁optim	-4999
reprene	-5000
hy	-5001
unk	-5002
val	-5003
ustr	-5004
▁hyp	-5005
▁đốc	-5006
▁task	-5007
▁wave	-5008
icking	-5009
▁displ	-5010
▁mothers	-5011
▁relative	-5012
off	-5013
bble	-5014
▁sou	-5015
▁crow	-5016
▁uses	-5017
▁giant	-5018
▁youtube	-5019
▁campaign	-5020
gar	-5021
pan	-5022
ray	-5023
ened	-5024
▁cát	-5025
aging	-5026
▁mart	-5027
▁floor	-5028
▁einstein	-5029
ýt	-5030
▁khỉ	-5031
▁đếm	-5032
▁clim	-5033
▁hằng	-5034
▁lung	-5035
▁hydro	-5036
▁decade	-5037
▁easier	-5038
▁cultural	-5039
▁entreprene	-5040
▁dram	-5041
▁spot	-5042
▁thẩm	-5043
▁select	-5044
▁stopped	-5045
iot	-5046
lam	-5047
▁phó	-5048
▁sor	-5049
▁tân	-5050
▁đáy	-5051
▁manu	-5052
▁repe	-5053
▁swim	-5054
▁price	-5055
▁speech	-5056
▁production	-5057
ướt	-5058
ancy	-5059
▁lâm	-5060
▁mix	-5061
▁mouth	-5062
▁total	-5063
▁closer	-5064
▁highly	-5065
▁conserv	-5066
2.	-5067
oon	-5068
osh	-5069
oty	-5070
▁habit	-5071
▁motiv	-5072
▁understood	-5073
ãng	-5074
iers	-5075
arian	-5076
rench	-5077
▁terr	-5078
ception	-5079
▁altern	-5080
▁mer	-5081
▁đớn	-5082
othes	-5083
▁wide	-5084
▁paris	-5085
▁engineering	-5086
▁tao	-5087
▁bạch	-5088
▁belief	-5089
▁custom	-5090
▁truyện	-5091
▁hearing	-5092
▁mission	-5093
▁ultimately	-5094
raid	-5095
▁nấm	-5096
▁heat	-5097
▁host	-5098
▁scan	-5099
▁biological	-5100
▁differently	-5101
▁iron	-5102
▁sect	-5103
▁weap	-5104
▁afraid	-5105
ami	-5106
rees	-5107
▁reve	-5108
▁strength	-5109
▁rào	-5110
▁đón	-5111
cking	-5112
ening	-5113
▁fing	-5114
▁stem	-5115
▁thuần	-5116
▁saving	-5117
▁vulner	-5118
▁contain	-5119
▁nations	-5120
▁fantastic	-5121
▁cẩn	-5122
▁xóa	-5123
arter	-5124
▁cach	-5125
▁demon	-5126
empt	-5127
kn	-5128
▁bão	-5129
▁nao	-5130
▁giành	-5131
▁offer	-5132
▁theyd	-5133
▁manufact	-5134
▁surprising	-5135
ae	-5136
▁hư	-5137
▁ii	-5138
▁aid	-5139
▁cấm	-5140
▁nho	-5141
▁instr	-5142
▁accord	-5143
▁opposite	-5144
▁studying	-5145
▁francisco	-5146
▁scientist	-5147
▁atmosphere	-5148
▁creativity	-5149
ils	-5150
ule	-5151
▁99	-5152
▁đố	-5153
▁communicate	-5154
iles	-5155
▁dyn	-5156
▁chừng	-5157
▁insect	-5158
▁helping	-5159
▁independ	-5160
▁programs	-5161
ises	-5162
▁pig	-5163
▁frequ	-5164
▁simpl	-5165
▁husband	-5166
▁consciousness	-5167
30	-5168
ỗng	-5169
▁lặn	-5170
▁hack	-5171
▁miền	-5172
▁wood	-5173
▁easily	-5174
▁brother	-5175
▁various	-5176
▁industrial	-5177
▁eg	-5178
▁na	-5179
▁birds	-5180
▁volunt	-5181
▁artists	-5182
▁matters	-5183
▁mc	-5184
ores	-5185
▁ath	-5186
▁dri	-5187
▁mont	-5188
▁ngựa	-5189
▁switch	-5190
▁correct	-5191
▁teaching	-5192
izes	-5193
uing	-5194
anced	-5195
▁held	-5196
▁gather	-5197
ike	-5198
▁mát	-5199
▁phạt	-5200
atures	-5201
▁accom	-5202
▁rapid	-5203
▁traff	-5204
▁harvard	-5205
time	-5206
▁194	-5207
▁wik	-5208
▁đậu	-5209
▁coff	-5210
▁ends	-5211
▁gard	-5212
▁tens	-5213
▁spaces	-5214
▁surgery	-5215
oo	-5216
ams	-5217
▁2008	-5218
▁mountain	-5219
▁rư	-5220
▁ber	-5221
▁mel	-5222
ables	-5223
▁gain	-5224
▁nhạy	-5225
▁rule	-5226
ov	-5227
▁tê	-5228
▁đắn	-5229
▁horm	-5230
▁mười	-5231
▁vari	-5232
▁vinh	-5233
▁below	-5234
▁james	-5235
▁possibly	-5236
▁remarkable	-5237
▁temperature	-5238
▁responsibility	-5239
▁fed	-5240
▁mur	-5241
▁ord	-5242
▁enter	-5243
▁attract	-5244
▁od	-5245
▁buôn	-5246
▁miêu	-5247
▁trạm	-5248
ifying	-5249
▁parad	-5250
▁thỉnh	-5251
ructure	-5252
▁evolved	-5253
▁noticed	-5254
▁invented	-5255
pro	-5256
pher	-5257
▁wow	-5258
iring	-5259
▁cand	-5260
▁russ	-5261
▁shift	-5262
▁tuyết	-5263
▁flying	-5264
▁infrast	-5265
▁27	-5266
▁vua	-5267
▁chai	-5268
▁quái	-5269
▁seas	-5270
▁trip	-5271
▁visit	-5272
▁passed	-5273
▁supply	-5274
▁explore	-5275
▁recover	-5276
▁nasa	-5277
▁emotions	-5278
ees	-5279
oper	-5280
pping	-5281
▁đinh	-5282
▁agree	-5283
▁religion	-5284
▁sustainable	-5285
ript	-5286
▁nga	-5287
▁ngã	-5288
▁nét	-5289
▁quê	-5290
▁lông	-5291
▁phổi	-5292
▁tung	-5293
▁logic	-5294
▁experiments	-5295
▁communication	-5296
▁veh	-5297
ank	-5298
▁et	-5299
▁ing	-5300
▁tax	-5301
▁giấu	-5302
▁missing	-5303
▁negative	-5304
▁significant	-5305
▁dãy	-5306
▁mat	-5307
atell	-5308
▁mamm	-5309
▁ninh	-5310
▁artist	-5311
af	-5312
▁chur	-5313
▁dynam	-5314
▁networks	-5315
ẫy	-5316
aria	-5317
iped	-5318
▁lin	-5319
▁burn	-5320
▁adapt	-5321
▁analy	-5322
▁tough	-5323
▁moments	-5324
iệc	-5325
▁dáng	-5326
▁hồng	-5327
▁events	-5328
▁creates	-5329
▁leading	-5330
▁societies	-5331
ael	-5332
tle	-5333
▁dò	-5334
iest	-5335
▁forg	-5336
▁coast	-5337
▁rough	-5338
▁yellow	-5339
▁inspired	-5340
▁partners	-5341
▁published	-5342
20	-5343
osy	-5344
▁đai	-5345
aught	-5346
▁disc	-5347
▁lệch	-5348
▁thuế	-5349
▁helps	-5350
▁sorry	-5351
▁khuyên	-5352
▁satell	-5353
▁symbol	-5354
▁therap	-5355
▁particles	-5356
âp	-5357
▁khớp	-5358
▁frame	-5359
▁fully	-5360
▁bridge	-5361
▁eating	-5362
▁forces	-5363
▁played	-5364
▁focused	-5365
illi	-5366
quit	-5367
▁fro	-5368
▁las	-5369
▁acad	-5370
▁paid	-5371
▁trộn	-5372
▁legal	-5373
▁regular	-5374
▁sharing	-5375
▁anderson	-5376
▁original	-5377
arm	-5378
leg	-5379
▁ôi	-5380
idden	-5381
water	-5382
▁brown	-5383
▁chăng	-5384
▁invis	-5385
▁weird	-5386
▁seemed	-5387
omy	-5388
rest	-5389
▁dao	-5390
▁hed	-5391
▁pak	-5392
▁puzz	-5393
▁twice	-5394
▁dreams	-5395
▁devices	-5396
▁amb	-5397
itely	-5398
▁muôn	-5399
▁corner	-5400
▁profound	-5401
▁according	-5402
▁tú	-5403
load	-5404
▁wis	-5405
▁aspect	-5406
▁ơi	-5407
cles	-5408
▁fol	-5409
▁lệnh	-5410
▁lights	-5411
▁importantly	-5412
▁infrastructure	-5413
ưc	-5414
▁saf	-5415
▁ven	-5416
▁dying	-5417
▁trượt	-5418
▁commer	-5419
▁enormous	-5420
ụt	-5421
aker	-5422
athy	-5423
rian	-5424
▁hen	-5425
▁rét	-5426
▁prou	-5427
▁depend	-5428
▁capacity	-5429
▁shouldnt	-5430
▁diversity	-5431
▁gà	-5432
ques	-5433
reed	-5434
▁hàm	-5435
▁hàn	-5436
▁lõi	-5437
▁won	-5438
▁hoại	-5439
▁legs	-5440
▁tiệc	-5441
▁tặng	-5442
ricult	-5443
▁bound	-5444
▁click	-5445
▁marri	-5446
▁shark	-5447
▁tuyển	-5448
▁darwin	-5449
▁giường	-5450
▁agricult	-5451
▁benefits	-5452
▁leadership	-5453
▁bul	-5454
▁jer	-5455
▁rot	-5456
▁tùy	-5457
▁mary	-5458
▁rout	-5459
▁vuông	-5460
▁coffee	-5461
▁democr	-5462
▁elements	-5463
▁mỏ	-5464
▁nở	-5465
▁giày	-5466
▁jack	-5467
▁lack	-5468
▁đoan	-5469
▁pleas	-5470
▁philosoph	-5471
▁suffering	-5472
▁ske	-5473
▁sữa	-5474
▁bụng	-5475
▁exer	-5476
▁trục	-5477
ashion	-5478
▁embra	-5479
▁equal	-5480
▁charles	-5481
▁forever	-5482
▁document	-5483
▁pakistan	-5484
▁television	-5485
▁làn	-5486
▁basis	-5487
▁belong	-5488
▁boston	-5489
▁meters	-5490
▁slightly	-5491
bt	-5492
hi	-5493
cra	-5494
cell	-5495
▁quyên	-5496
▁flight	-5497
ification	-5498
▁nấu	-5499
▁crim	-5500
▁join	-5501
▁lapt	-5502
▁faces	-5503
▁waves	-5504
▁french	-5505
▁raised	-5506
ulations	-5507
▁austral	-5508
▁contact	-5509
▁degrees	-5510
▁multiple	-5511
▁professor	-5512
lim	-5513
ses	-5514
▁bg	-5515
heim	-5516
iano	-5517
▁gent	-5518
▁tháp	-5519
▁noise	-5520
▁sport	-5521
▁adults	-5522
▁engage	-5523
▁signals	-5524
▁produced	-5525
▁structures	-5526
aff	-5527
iff	-5528
reg	-5529
▁0.	-5530
▁ip	-5531
▁cụm	-5532
▁hôi	-5533
icles	-5534
▁cort	-5535
▁shop	-5536
▁trấn	-5537
▁wear	-5538
itable	-5539
▁accur	-5540
▁thăng	-5541
▁window	-5542
▁otherwise	-5543
zen	-5544
▁funny	-5545
▁compon	-5546
▁tissue	-5547
▁artific	-5548
▁billions	-5549
▁entirely	-5550
▁strategy	-5551
▁efficient	-5552
ộm	-5553
▁lò	-5554
▁ble	-5555
▁pha	-5556
▁fold	-5557
▁teles	-5558
▁applic	-5559
▁brilli	-5560
▁corpor	-5561
▁khuyết	-5562
▁failure	-5563
eral	-5564
▁bag	-5565
▁đeo	-5566
▁dính	-5567
▁rưỡi	-5568
▁fighting	-5569
▁foundation	-5570
▁cự	-5571
▁ồn	-5572
▁heo	-5573
▁ngũ	-5574
▁defe	-5575
▁tast	-5576
▁lucky	-5577
▁deeply	-5578
▁telesc	-5579
▁emotion	-5580
▁richard	-5581
▁majority	-5582
cest	-5583
etime	-5584
▁bông	-5585
▁copy	-5586
▁mệnh	-5587
▁subs	-5588
▁thom	-5589
▁cloud	-5590
▁metap	-5591
llywood	-5592
▁breath	-5593
▁motion	-5594
▁believed	-5595
▁gã	-5596
ysis	-5597
▁row	-5598
▁cycle	-5599
▁attempt	-5600
1.	-5601
ẫm	-5602
▁mờ	-5603
▁chìm	-5604
▁avoid	-5605
▁astron	-5606
▁unlike	-5607
▁holding	-5608
▁bringing	-5609
▁controll	-5610
▁differences	-5611
5.	-5612
▁fle	-5613
▁gam	-5614
istry	-5615
▁dược	-5616
▁libr	-5617
▁thưa	-5618
▁lường	-5619
▁phiền	-5620
▁sympt	-5621
▁cooper	-5622
▁grandm	-5623
▁angeles	-5624
▁describe	-5625
▁spending	-5626
tend	-5627
▁core	-5628
▁daily	-5629
▁nghịch	-5630
ùm	-5631
sec	-5632
▁khao	-5633
▁snow	-5634
▁steve	-5635
▁active	-5636
▁genome	-5637
▁destroy	-5638
▁farmers	-5639
▁construct	-5640
▁consequences	-5641
▁opportunities	-5642
bled	-5643
▁due	-5644
▁hối	-5645
▁mệt	-5646
▁thẻ	-5647
orders	-5648
osystem	-5649
▁iphone	-5650
▁michael	-5651
▁turning	-5652
▁everyday	-5653
based	-5654
▁chic	-5655
▁khơi	-5656
▁poet	-5657
▁ancest	-5658
▁trouble	-5659
▁background	-5660
▁ạ	-5661
roph	-5662
▁dâm	-5663
▁cred	-5664
▁khoẻ	-5665
▁platform	-5666
▁previous	-5667
▁collective	-5668
wor	-5669
▁gỡ	-5670
▁bụi	-5671
▁advant	-5672
▁languages	-5673
yl	-5674
▁alz	-5675
▁haw	-5676
board	-5677
▁khac	-5678
▁brings	-5679
▁depart	-5680
▁letter	-5681
▁ecosystem	-5682
▁nợ	-5683
▁600	-5684
▁bận	-5685
▁liều	-5686
▁thính	-5687
▁damage	-5688
▁desert	-5689
▁prefer	-5690
▁virtual	-5691
▁distance	-5692
thes	-5693
▁bud	-5694
▁mồi	-5695
▁pun	-5696
▁2009	-5697
▁muỗi	-5698
▁nàng	-5699
▁silic	-5700
▁stuck	-5701
▁bought	-5702
▁counter	-5703
▁bơ	-5704
▁lề	-5705
▁xóm	-5706
▁chín	-5707
▁hỏng	-5708
▁myth	-5709
▁ngốc	-5710
▁names	-5711
▁tremend	-5712
▁dứt	-5713
▁note	-5714
▁court	-5715
▁begins	-5716
▁sister	-5717
▁landscape	-5718
▁religious	-5719
oh	-5720
▁ens	-5721
iable	-5722
▁band	-5723
▁pros	-5724
▁obama	-5725
▁british	-5726
▁foreign	-5727
ole	-5728
▁195	-5729
▁lạp	-5730
▁hiên	-5731
▁ngập	-5732
▁đôla	-5733
▁brand	-5734
▁magaz	-5735
▁prior	-5736
▁chicago	-5737
▁36	-5738
▁mì	-5739
▁thọ	-5740
▁bear	-5741
▁maint	-5742
▁photo	-5743
▁benefit	-5744
▁empower	-5745
▁limited	-5746
▁require	-5747
▁volunte	-5748
▁invisible	-5749
▁ư	-5750
▁gói	-5751
▁kênh	-5752
▁ship	-5753
athers	-5754
▁homes	-5755
▁wheel	-5756
▁leaves	-5757
▁nghiện	-5758
▁alzheim	-5759
▁childhood	-5760
za	-5761
▁ox	-5762
▁kèm	-5763
known	-5764
right	-5765
▁cogn	-5766
▁gift	-5767
▁hạng	-5768
▁subst	-5769
▁leaving	-5770
▁constantly	-5771
▁generations	-5772
▁xí	-5773
here	-5774
pper	-5775
vant	-5776
▁lôi	-5777
inist	-5778
▁bomb	-5779
▁vote	-5780
▁piano	-5781
▁walls	-5782
▁batter	-5783
▁signal	-5784
▁transm	-5785
▁investig	-5786
▁dàn	-5787
▁tam	-5788
▁fresh	-5789
▁islam	-5790
▁novel	-5791
▁gentle	-5792
▁gotten	-5793
▁married	-5794
▁partner	-5795
▁considered	-5796
ypt	-5797
▁dã	-5798
erly	-5799
▁dán	-5800
▁gấu	-5801
▁mâu	-5802
▁mỏi	-5803
uries	-5804
▁stri	-5805
▁trần	-5806
▁leads	-5807
▁colors	-5808
▁possibility	-5809
irt	-5810
ked	-5811
reci	-5812
▁aug	-5813
▁hầm	-5814
▁tro	-5815
▁bong	-5816
▁nhẫn	-5817
▁calls	-5818
▁indic	-5819
▁quãng	-5820
▁caused	-5821
▁desire	-5822
▁manage	-5823
▁influence	-5824
▁artificial	-5825
▁conference	-5826
▁rw	-5827
osis	-5828
rict	-5829
▁nhắm	-5830
▁thâm	-5831
acking	-5832
▁recon	-5833
▁studied	-5834
▁necessary	-5835
▁responsible	-5836
ướp	-5837
wide	-5838
▁org	-5839
▁thám	-5840
▁crime	-5841
▁latin	-5842
▁bright	-5843
▁dinner	-5844
▁master	-5845
▁opened	-5846
▁thomas	-5847
▁malaria	-5848
▁imagination	-5849
mm	-5850
▁adn	-5851
▁exch	-5852
▁xinh	-5853
▁khoan	-5854
▁lesson	-5855
▁concent	-5856
▁feelings	-5857
▁creatures	-5858
▁currently	-5859
▁úc	-5860
▁epid	-5861
▁hate	-5862
▁scen	-5863
▁seed	-5864
▁camer	-5865
▁harder	-5866
▁conduct	-5867
▁fashion	-5868
▁investment	-5869
ằn	-5870
ola	-5871
ears	-5872
▁cos	-5873
▁nav	-5874
▁2007	-5875
▁caught	-5876
▁church	-5877
▁failed	-5878
▁unless	-5879
▁european	-5880
▁received	-5881
▁associated	-5882
do	-5883
mon	-5884
pir	-5885
▁bếp	-5886
▁mort	-5887
urally	-5888
▁egypt	-5889
▁proud	-5890
▁indian	-5891
▁compared	-5892
▁definition	-5893
ns	-5894
▁alt	-5895
▁kín	-5896
▁ton	-5897
bling	-5898
itness	-5899
ometers	-5900
▁interp	-5901
▁markets	-5902
hen	-5903
ume	-5904
▁quà	-5905
▁sen	-5906
▁appe	-5907
▁isol	-5908
▁double	-5909
▁muscle	-5910
▁microbes	-5911
▁surprise	-5912
▁necessarily	-5913
ints	-5914
▁fab	-5915
▁arms	-5916
▁quét	-5917
▁shel	-5918
▁tiếc	-5919
acters	-5920
▁chann	-5921
▁chick	-5922
▁pounds	-5923
▁characters	-5924
uel	-5925
▁26	-5926
▁mày	-5927
▁gala	-5928
▁thụy	-5929
▁tươi	-5930
▁vent	-5931
▁antib	-5932
▁intel	-5933
▁pregn	-5934
▁origin	-5935
▁phones	-5936
▁discovery	-5937
4.	-5938
▁hol	-5939
▁shr	-5940
▁sung	-5941
▁estab	-5942
▁transp	-5943
▁womens	-5944
▁politic	-5945
▁competition	-5946
ha	-5947
▁fif	-5948
▁gap	-5949
▁les	-5950
▁nar	-5951
▁rât	-5952
▁gall	-5953
▁trắc	-5954
▁infin	-5955
▁dimens	-5956
▁hidden	-5957
▁silicon	-5958
▁wearing	-5959
▁struggle	-5960
▁engineers	-5961
▁hò	-5962
▁mac	-5963
▁sàn	-5964
▁đực	-5965
oking	-5966
▁2010	-5967
▁3000	-5968
▁chìa	-5969
▁kore	-5970
▁ngon	-5971
▁wire	-5972
idents	-5973
ography	-5974
▁breast	-5975
▁degree	-5976
▁photos	-5977
▁balance	-5978
▁capable	-5979
▁mẩu	-5980
osing	-5981
▁rung	-5982
▁dollar	-5983
▁survival	-5984
▁phenomenon	-5985
da	-5986
ari	-5987
oes	-5988
▁vở	-5989
bola	-5990
▁cất	-5991
▁cốc	-5992
▁lão	-5993
▁ment	-5994
▁purs	-5995
▁faith	-5996
▁prize	-5997
▁immune	-5998
▁appreci	-5999
▁marriage	-6000
▁businesses	-6001
▁mẻ	-6002
▁tha	-6003
▁tần	-6004
▁châm	-6005
ushing	-6006
▁syria	-6007
▁deeper	-6008
▁fellow	-6009
▁galaxy	-6010
▁voices	-6011
▁succeed	-6012
▁watched	-6013
fo	-6014
▁sô	-6015
berg	-6016
▁hẹp	-6017
▁ray	-6018
craft	-6019
▁poly	-6020
▁tour	-6021
▁beach	-6022
▁ebola	-6023
▁losing	-6024
▁letters	-6025
▁identify	-6026
cil	-6027
▁ron	-6028
celer	-6029
▁liqu	-6030
▁recy	-6031
▁thói	-6032
▁atlant	-6033
▁fourth	-6034
▁station	-6035
▁typical	-6036
bre	-6037
▁lou	-6038
▁lân	-6039
▁soc	-6040
▁adop	-6041
▁100000	-6042
▁figured	-6043
▁related	-6044
▁dải	-6045
▁lùi	-6046
▁nảy	-6047
▁rửa	-6048
ulous	-6049
elling	-6050
▁moves	-6051
▁valle	-6052
▁laptop	-6053
▁leader	-6054
▁slowly	-6055
▁traffic	-6056
▁separate	-6057
▁ga	-6058
▁dám	-6059
▁tow	-6060
▁thổi	-6061
▁claim	-6062
▁grown	-6063
▁trial	-6064
▁il	-6065
mark	-6066
▁dry	-6067
aters	-6068
▁lies	-6069
▁soil	-6070
▁climb	-6071
▁steps	-6072
▁described	-6073
▁professional	-6074
▁era	-6075
illed	-6076
▁goals	-6077
▁forced	-6078
▁illness	-6079
▁microsc	-6080
▁followed	-6081
▁experienced	-6082
sa	-6083
ợn	-6084
care	-6085
oted	-6086
▁khôn	-6087
▁stan	-6088
▁weak	-6089
▁motor	-6090
▁refer	-6091
▁round	-6092
▁circle	-6093
▁fortun	-6094
▁safety	-6095
▁trained	-6096
▁rãi	-6097
▁tắm	-6098
▁dũng	-6099
▁màng	-6100
▁poem	-6101
▁ranh	-6102
▁rates	-6103
▁sugar	-6104
▁talks	-6105
▁insight	-6106
▁precise	-6107
▁organisms	-6108
▁3.	-6109
▁65	-6110
▁cậy	-6111
▁jew	-6112
▁twe	-6113
▁limit	-6114
▁convin	-6115
▁curious	-6116
▁wikiped	-6117
ibilities	-6118
▁perfectly	-6119
▁universal	-6120
▁complexity	-6121
▁conversations	-6122
gin	-6123
▁sứ	-6124
aled	-6125
ania	-6126
rete	-6127
▁bút	-6128
▁lạm	-6129
▁boat	-6130
▁bone	-6131
▁exec	-6132
ulated	-6133
▁march	-6134
issions	-6135
▁brilliant	-6136
▁connections	-6137
ẻo	-6138
▁tủ	-6139
enty	-6140
▁fal	-6141
▁lấp	-6142
▁phú	-6143
▁opin	-6144
▁phái	-6145
▁rein	-6146
▁shut	-6147
quality	-6148
▁commit	-6149
▁fields	-6150
▁highest	-6151
▁worried	-6152
▁wikipedia	-6153
▁q	-6154
box	-6155
▁bột	-6156
▁quát	-6157
▁argue	-6158
▁cheap	-6159
▁prost	-6160
ruption	-6161
▁filled	-6162
▁neuros	-6163
▁factors	-6164
▁mosquit	-6165
▁witness	-6166
▁feedback	-6167
lus	-6168
▁uy	-6169
cers	-6170
▁etc	-6171
force	-6172
▁soul	-6173
▁tang	-6174
▁explor	-6175
▁acceler	-6176
▁replace	-6177
▁weapons	-6178
▁reaction	-6179
▁tremendous	-6180
emy	-6181
sey	-6182
▁coc	-6183
▁sốc	-6184
▁thô	-6185
antic	-6186
estic	-6187
▁lướt	-6188
▁vang	-6189
▁heads	-6190
▁remote	-6191
▁requires	-6192
roll	-6193
gging	-6194
▁bird	-6195
▁gián	-6196
▁lượt	-6197
▁nerv	-6198
▁ngực	-6199
▁folks	-6200
ani	-6201
ida	-6202
▁gut	-6203
▁date	-6204
▁foss	-6205
▁shad	-6206
▁newsp	-6207
▁risks	-6208
▁thiệt	-6209
▁thịnh	-6210
▁fascinating	-6211
▁cởi	-6212
▁tex	-6213
▁bees	-6214
▁spin	-6215
▁wake	-6216
▁airpl	-6217
▁thùng	-6218
▁vương	-6219
▁circum	-6220
▁keeping	-6221
▁symptoms	-6222
▁mentioned	-6223
▁lãm	-6224
▁moi	-6225
▁trơ	-6226
▁frag	-6227
▁thua	-6228
▁tons	-6229
▁tuân	-6230
▁bread	-6231
▁lưỡng	-6232
▁setting	-6233
▁expected	-6234
▁normally	-6235
ub	-6236
▁ze	-6237
hold	-6238
▁bow	-6239
▁ves	-6240
alled	-6241
▁1980	-6242
▁diet	-6243
▁disp	-6244
▁paint	-6245
▁perce	-6246
▁compare	-6247
▁release	-6248
▁designers	-6249
▁statistics	-6250
eins	-6251
▁cosm	-6252
▁eleph	-6253
▁facts	-6254
▁haiti	-6255
▁nobel	-6256
▁movies	-6257
▁oceans	-6258
ographic	-6259
▁experts	-6260
▁quantum	-6261
▁restaur	-6262
▁argument	-6263
▁refugees	-6264
▁classroom	-6265
▁seriously	-6266
den	-6267
▁bớt	-6268
▁pil	-6269
▁rắn	-6270
▁đâm	-6271
apers	-6272
▁edge	-6273
▁kiệt	-6274
▁soph	-6275
▁stim	-6276
▁thuẫn	-6277
▁trinh	-6278
▁closed	-6279
▁hollywood	-6280
▁surprised	-6281
▁hòn	-6282
▁unp	-6283
ipped	-6284
▁chip	-6285
▁intu	-6286
▁tall	-6287
▁texas	-6288
▁titan	-6289
▁toile	-6290
▁encoun	-6291
▁calling	-6292
▁managed	-6293
ita	-6294
rel	-6295
odes	-6296
▁jim	-6297
▁kẹt	-6298
▁max	-6299
▁toà	-6300
▁asia	-6301
▁fell	-6302
▁myst	-6303
▁nhãn	-6304
▁warm	-6305
▁atoms	-6306
▁cưỡng	-6307
▁scene	-6308
▁martin	-6309
▁nervous	-6310
▁hopefully	-6311
▁gps	-6312
▁jul	-6313
▁lăn	-6314
▁und	-6315
esome	-6316
▁cướp	-6317
▁hurt	-6318
▁continu	-6319
▁tomorrow	-6320
▁ừ	-6321
▁pm	-6322
▁ưa	-6323
bors	-6324
▁5000	-6325
▁bush	-6326
▁empt	-6327
▁flor	-6328
▁ngọt	-6329
▁ruồi	-6330
▁crowd	-6331
▁exists	-6332
▁robert	-6333
▁videos	-6334
▁processes	-6335
▁kilometers	-6336
mar	-6337
ille	-6338
▁nốt	-6339
essed	-6340
▁bare	-6341
▁bell	-6342
▁bênh	-6343
▁trưa	-6344
lement	-6345
▁observ	-6346
▁gravity	-6347
▁invited	-6348
▁advantage	-6349
▁hố	-6350
▁ki	-6351
▁sơn	-6352
owing	-6353
throp	-6354
ensity	-6355
▁sight	-6356
▁fairly	-6357
▁liquid	-6358
▁treated	-6359
▁accident	-6360
▁demonstr	-6361
▁thoughts	-6362
▁cognitive	-6363
▁concerned	-6364
▁increasingly	-6365
ala	-6366
▁rẽ	-6367
▁ros	-6368
▁túy	-6369
▁đáo	-6370
▁lunch	-6371
▁stood	-6372
▁wisdom	-6373
▁contract	-6374
▁maintain	-6375
ốm	-6376
▁zo	-6377
▁hoà	-6378
▁wel	-6379
▁cưới	-6380
▁ruột	-6381
▁nơron	-6382
▁sector	-6383
▁singing	-6384
▁electrical	-6385
▁alternative	-6386
ota	-6387
▁32	-6388
agen	-6389
lymp	-6390
▁hoc	-6391
▁hệt	-6392
▁spl	-6393
▁chúc	-6394
▁cuôc	-6395
▁hunt	-6396
▁init	-6397
▁milk	-6398
thetic	-6399
▁solid	-6400
▁willi	-6401
▁valley	-6402
▁radical	-6403
▁vaccine	-6404
▁finished	-6405
▁magazine	-6406
▁metaphor	-6407
▁increased	-6408
▁principle	-6409
▁vulnerable	-6410
▁comfortable	-6411
my	-6412
▁km	-6413
▁kịp	-6414
akers	-6415
attan	-6416
▁whom	-6417
▁battle	-6418
▁creation	-6419
▁longterm	-6420
▁planning	-6421
▁bọ	-6422
iors	-6423
opes	-6424
▁bọc	-6425
▁trú	-6426
▁vắc	-6427
▁army	-6428
▁flag	-6429
▁chain	-6430
▁laser	-6431
▁mouse	-6432
▁implic	-6433
▁regard	-6434
▁vessel	-6435
▁actions	-6436
▁insects	-6437
▁cultures	-6438
rum	-6439
▁gõ	-6440
cket	-6441
grad	-6442
head	-6443
lock	-6444
▁chà	-6445
▁sem	-6446
▁lady	-6447
▁tháo	-6448
▁thôn	-6449
▁tông	-6450
▁categ	-6451
▁olymp	-6452
▁thằng	-6453
▁trương	-6454
▁trillion	-6455
▁existence	-6456
▁intellect	-6457
▁mathematics	-6458
▁entrepreneurs	-6459
3.	-6460
ộp	-6461
▁cừ	-6462
▁đẻ	-6463
otic	-6464
▁bia	-6465
▁lie	-6466
▁mấu	-6467
▁rat	-6468
▁tick	-6469
▁opens	-6470
▁studio	-6471
edy	-6472
pes	-6473
▁scr	-6474
▁vay	-6475
▁cast	-6476
▁nhầm	-6477
▁trig	-6478
lusion	-6479
▁galax	-6480
▁rural	-6481
▁shoes	-6482
connect	-6483
▁facing	-6484
▁arrived	-6485
▁reprodu	-6486
dy	-6487
cap	-6488
▁28	-6489
amin	-6490
cast	-6491
ests	-6492
fish	-6493
▁nit	-6494
▁chua	-6495
▁coal	-6496
▁coral	-6497
▁layer	-6498
▁ngoan	-6499
▁nhũng	-6500
▁announ	-6501
▁england	-6502
▁equival	-6503
▁civilization	-6504
ih	-6505
und	-6506
well	-6507
▁mạn	-6508
▁sar	-6509
▁đới	-6510
▁clip	-6511
▁cure	-6512
▁giãn	-6513
▁mand	-6514
▁ngừa	-6515
▁crash	-6516
▁horiz	-6517
▁reward	-6518
▁toward	-6519
▁awesome	-6520
▁germany	-6521
▁galaxies	-6522
▁sequence	-6523
▁whenever	-6524
▁manhattan	-6525
▁commercial	-6526
acle	-6527
▁gan	-6528
▁itll	-6529
▁kick	-6530
▁nắng	-6531
▁treo	-6532
▁trân	-6533
▁honor	-6534
▁khẳng	-6535
▁plane	-6536
▁stone	-6537
▁notion	-6538
▁australia	-6539
▁neighbors	-6540
6.	-6541
ếch	-6542
▁py	-6543
▁ceo	-6544
▁dọn	-6545
▁nic	-6546
▁vải	-6547
▁chap	-6548
▁neut	-6549
▁remo	-6550
▁seat	-6551
ctions	-6552
▁attach	-6553
▁exercise	-6554
▁essential	-6555
▁principles	-6556
ey	-6557
car	-6558
ias	-6559
imp	-6560
alog	-6561
opia	-6562
▁jan	-6563
▁sir	-6564
▁đồi	-6565
▁roof	-6566
▁zone	-6567
▁địch	-6568
▁colon	-6569
▁minim	-6570
▁obser	-6571
▁stock	-6572
▁option	-6573
▁spring	-6574
▁element	-6575
▁clinical	-6576
▁congress	-6577
▁memories	-6578
▁sentence	-6579
▁institution	-6580
ij	-6581
ễu	-6582
olves	-6583
▁chăn	-6584
▁quiet	-6585
▁spoke	-6586
▁radiation	-6587
gged	-6588
itals	-6589
▁pure	-6590
▁reef	-6591
▁scul	-6592
▁valu	-6593
▁wars	-6594
▁heavy	-6595
▁shell	-6596
▁constant	-6597
vin	-6598
▁91	-6599
▁tỏa	-6600
ropri	-6601
▁broke	-6602
▁hasnt	-6603
▁tumor	-6604
▁charge	-6605
▁promise	-6606
▁released	-6607
ca	-6608
▁chở	-6609
owers	-6610
place	-6611
▁1970	-6612
▁canh	-6613
▁decl	-6614
▁capture	-6615
▁organic	-6616
▁advanced	-6617
▁engineer	-6618
▁messages	-6619
▁department	-6620
▁intelligent	-6621
▁sla	-6622
angers	-6623
▁carol	-6624
▁inner	-6625
▁courage	-6626
abilities	-6627
▁chemicals	-6628
▁algorithms	-6629
ki	-6630
pet	-6631
zing	-6632
asion	-6633
ented	-6634
▁buýt	-6635
▁chôn	-6636
▁hide	-6637
▁jail	-6638
▁jeff	-6639
▁load	-6640
▁vĩnh	-6641
▁grass	-6642
▁shame	-6643
▁signs	-6644
▁surge	-6645
▁paying	-6646
▁stream	-6647
▁drawing	-6648
▁analysis	-6649
▁election	-6650
▁ordinary	-6651
▁operating	-6652
▁typically	-6653
▁worldwide	-6654
bles	-6655
soft	-6656
▁cow	-6657
▁dắt	-6658
▁đạn	-6659
▁suic	-6660
▁debate	-6661
▁finish	-6662
▁organs	-6663
▁status	-6664
▁include	-6665
ev	-6666
ald	-6667
▁iv	-6668
▁rũ	-6669
aked	-6670
ogen	-6671
word	-6672
▁pac	-6673
▁1990	-6674
▁hill	-6675
▁mỏng	-6676
encies	-6677
▁brief	-6678
▁chair	-6679
▁gates	-6680
▁pitch	-6681
▁reject	-6682
▁consist	-6683
▁algorithm	-6684
▁confidence	-6685
▁grandmother	-6686
9.	-6687
aren	-6688
▁chục	-6689
▁shed	-6690
▁unit	-6691
▁added	-6692
▁exhib	-6693
▁holes	-6694
▁quote	-6695
▁blocks	-6696
▁garden	-6697
▁survey	-6698
▁article	-6699
▁library	-6700
▁testing	-6701
▁victims	-6702
▁southern	-6703
▁interaction	-6704
▁specifically	-6705
▁95	-6706
▁hưu	-6707
▁sắt	-6708
▁bath	-6709
▁qual	-6710
▁trib	-6711
▁saved	-6712
▁options	-6713
▁sending	-6714
▁activities	-6715
▁importance	-6716
8.	-6717
én	-6718
ivers	-6719
▁bits	-6720
▁phẳng	-6721
▁accompl	-6722
▁privile	-6723
▁roughly	-6724
▁sources	-6725
▁launched	-6726
▁transition	-6727
▁rễ	-6728
▁tơ	-6729
▁lawy	-6730
▁meat	-6731
▁generate	-6732
▁naturally	-6733
▁organized	-6734
▁equivalent	-6735
▁cạn	-6736
▁cụt	-6737
▁hoi	-6738
▁phì	-6739
iques	-6740
tered	-6741
▁hoài	-6742
▁pair	-6743
▁span	-6744
▁barri	-6745
▁prove	-6746
▁tướng	-6747
▁picked	-6748
▁versus	-6749
▁silence	-6750
▁variety	-6751
▁property	-6752
▁emissions	-6753
▁microsoft	-6754
▁rô	-6755
ager	-6756
▁eld	-6757
▁nhở	-6758
▁ngắm	-6759
▁ideal	-6760
▁illeg	-6761
▁shapes	-6762
▁details	-6763
▁lifetime	-6764
▁satellite	-6765
▁wondering	-6766
▁perception	-6767
▁oct	-6768
▁arts	-6769
▁bran	-6770
▁khôi	-6771
▁đuôi	-6772
▁hadnt	-6773
▁uncle	-6774
▁autism	-6775
▁explan	-6776
▁weather	-6777
▁definitely	-6778
ubl	-6779
▁ky	-6780
▁250	-6781
▁fis	-6782
▁abst	-6783
▁intr	-6784
pected	-6785
▁empty	-6786
▁equip	-6787
▁grant	-6788
▁pages	-6789
▁sides	-6790
▁traum	-6791
▁cacbon	-6792
▁define	-6793
▁member	-6794
▁stupid	-6795
▁causing	-6796
▁encoura	-6797
▁pleasure	-6798
▁profession	-6799
gl	-6800
▁mak	-6801
▁sel	-6802
etics	-6803
▁cuộn	-6804
▁henry	-6805
▁keeps	-6806
▁thoái	-6807
osition	-6808
▁reform	-6809
▁sculpt	-6810
▁falling	-6811
▁warming	-6812
▁continent	-6813
▁narrative	-6814
▁politicians	-6815
▁environments	-6816
och	-6817
set	-6818
▁bơm	-6819
▁bắp	-6820
▁auth	-6821
▁nurs	-6822
▁flood	-6823
▁fract	-6824
▁marine	-6825
▁dealing	-6826
▁criminal	-6827
▁japanese	-6828
▁valuable	-6829
imensional	-6830
▁centuries	-6831
▁designing	-6832
▁mountains	-6833
ift	-6834
▁amy	-6835
▁pul	-6836
▁hoan	-6837
▁muộn	-6838
▁resc	-6839
▁ring	-6840
▁vibr	-6841
▁metal	-6842
▁fossil	-6843
▁houses	-6844
▁virgin	-6845
▁depends	-6846
▁funding	-6847
▁resource	-6848
▁soldiers	-6849
▁chemistry	-6850
▁agriculture	-6851
▁independent	-6852
lyn	-6853
ris	-6854
▁nọ	-6855
▁ân	-6856
mber	-6857
▁lát	-6858
▁quí	-6859
oxide	-6860
▁thắc	-6861
iosity	-6862
▁quyến	-6863
▁satis	-6864
▁serve	-6865
▁cameras	-6866
▁empathy	-6867
▁theater	-6868
▁represents	-6869
dr	-6870
ùn	-6871
▁191	-6872
▁hal	-6873
▁uns	-6874
eline	-6875
▁1960	-6876
▁sees	-6877
stream	-6878
▁sweet	-6879
itarian	-6880
▁height	-6881
▁reached	-6882
▁molecule	-6883
▁management	-6884
▁protection	-6885
▁potentially	-6886
ta	-6887
vi	-6888
crim	-6889
▁eggs	-6890
▁nano	-6891
▁nick	-6892
forest	-6893
icious	-6894
▁concrete	-6895
▁designer	-6896
▁graduate	-6897
▁employees	-6898
▁possibilities	-6899
ươn	-6900
▁si	-6901
▁sco	-6902
▁adam	-6903
▁flat	-6904
▁gánh	-6905
▁users	-6906
▁uganda	-6907
▁fishing	-6908
▁opening	-6909
▁brothers	-6910
▁mistakes	-6911
▁convention	-6912
new	-6913
ura	-6914
oses	-6915
▁meg	-6916
▁sạn	-6917
▁đan	-6918
▁đợt	-6919
abled	-6920
▁dogs	-6921
▁nhât	-6922
▁pray	-6923
ession	-6924
▁ghana	-6925
▁storm	-6926
▁stret	-6927
▁suffer	-6928
▁dynamic	-6929
▁carefully	-6930
▁techniques	-6931
iel	-6932
nam	-6933
urb	-6934
▁cừu	-6935
▁lật	-6936
icity	-6937
▁1950	-6938
▁hước	-6939
▁hyper	-6940
▁sites	-6941
▁advert	-6942
▁prototy	-6943
▁visible	-6944
▁affected	-6945
▁circumst	-6946
▁exchange	-6947
▁bô	-6948
▁ốc	-6949
▁chợ	-6950
icien	-6951
point	-6952
▁cổng	-6953
▁plus	-6954
▁khiếm	-6955
▁kitch	-6956
▁nướng	-6957
iration	-6958
▁yester	-6959
▁cutting	-6960
▁existing	-6961
▁proteins	-6962
▁collection	-6963
▁situations	-6964
▁construction	-6965
alk	-6966
icy	-6967
▁cúm	-6968
▁tap	-6969
lying	-6970
▁giơi	-6971
▁tail	-6972
olving	-6973
▁dinos	-6974
▁teams	-6975
▁advent	-6976
▁forgot	-6977
▁review	-6978
▁sports	-6979
▁rapidly	-6980
▁antibiot	-6981
onym	-6982
▁bám	-6983
▁maps	-6984
▁mảng	-6985
▁thât	-6986
▁unex	-6987
▁contr	-6988
▁doubt	-6989
▁estim	-6990
▁veget	-6991
▁severe	-6992
▁meaningful	-6993
ctic	-6994
ding	-6995
edic	-6996
▁hem	-6997
▁rau	-6998
▁sôi	-6999
icing	-7000
▁scar	-7001
▁initi	-7002
▁credit	-7003
▁escape	-7004
▁symmet	-7005
▁privacy	-7006
▁fundament	-7007
▁technical	-7008
aks	-7009
ull	-7010
uses	-7011
▁bob	-7012
▁hét	-7013
▁mọc	-7014
▁pip	-7015
neath	-7016
▁evil	-7017
▁inev	-7018
▁angry	-7019
▁manip	-7020
▁smile	-7021
▁advice	-7022
▁puzzle	-7023
▁thinks	-7024
▁todays	-7025
▁covered	-7026
▁factory	-7027
▁florida	-7028
▁killing	-7029
▁regions	-7030
▁internal	-7031
▁disappear	-7032
▁underneath	-7033
▁effectively	-7034
ym	-7035
apse	-7036
▁cựu	-7037
▁phr	-7038
erves	-7039
▁perm	-7040
▁prev	-7041
▁vươn	-7042
▁assem	-7043
▁cuồng	-7044
▁domin	-7045
▁nhàng	-7046
comfort	-7047
▁assist	-7048
▁earths	-7049
▁factor	-7050
▁display	-7051
▁millenn	-7052
▁features	-7053
▁location	-7054
▁stanford	-7055
▁encourage	-7056
▁institute	-7057
▁telescope	-7058
▁yesterday	-7059
▁democratic	-7060
pa	-7061
oma	-7062
▁ts	-7063
▁chước	-7064
▁resil	-7065
▁rwanda	-7066
▁mystery	-7067
▁curiosity	-7068
▁inequality	-7069
7.	-7070
bra	-7071
hol	-7072
ụng	-7073
▁fan	-7074
▁jes	-7075
▁múa	-7076
▁phô	-7077
▁sưu	-7078
▁tât	-7079
▁đền	-7080
▁flex	-7081
▁loud	-7082
▁puts	-7083
▁thin	-7084
▁vert	-7085
▁occup	-7086
▁thick	-7087
▁incent	-7088
▁command	-7089
▁defined	-7090
▁epidemic	-7091
▁required	-7092
▁behaviors	-7093
▁equipment	-7094
▁properties	-7095
de	-7096
lv	-7097
▁hê	-7098
▁mỉ	-7099
irty	-7100
ouds	-7101
▁hoạ	-7102
▁qui	-7103
▁trà	-7104
▁marg	-7105
▁nhánh	-7106
▁smith	-7107
▁staff	-7108
▁teeth	-7109
▁clouds	-7110
▁scared	-7111
▁players	-7112
▁remains	-7113
▁northern	-7114
▁hospitals	-7115
▁expression	-7116
▁introduced	-7117
▁resistance	-7118
ums	-7119
▁dol	-7120
▁tảo	-7121
▁vòi	-7122
iters	-7123
lands	-7124
▁desk	-7125
▁gạch	-7126
▁khúc	-7127
▁aging	-7128
▁faced	-7129
▁assign	-7130
▁divide	-7131
▁mirror	-7132
▁receive	-7133
▁unknown	-7134
▁younger	-7135
▁convinced	-7136
▁interpret	-7137
▁movements	-7138
▁relatively	-7139
itz	-7140
rom	-7141
▁mồ	-7142
ront	-7143
amine	-7144
▁films	-7145
▁scott	-7146
▁clinic	-7147
▁desper	-7148
▁replic	-7149
▁neither	-7150
▁violent	-7151
▁whereas	-7152
▁economics	-7153
▁entertain	-7154
▁traveling	-7155
▁consumption	-7156
cipl	-7157
ingu	-7158
▁adj	-7159
▁rhy	-7160
▁nose	-7161
americ	-7162
ternal	-7163
▁arist	-7164
▁thung	-7165
▁france	-7166
▁ladies	-7167
▁pulled	-7168
▁clothes	-7169
▁engaged	-7170
▁spectrum	-7171
▁introduce	-7172
▁healthcare	-7173
▁manufacturing	-7174
oe	-7175
tt	-7176
▁jon	-7177
▁nát	-7178
xiety	-7179
▁2011	-7180
▁cave	-7181
▁drag	-7182
▁hinh	-7183
▁lift	-7184
▁nhặt	-7185
isters	-7186
lation	-7187
▁allowing	-7188
▁equality	-7189
▁sophistic	-7190
▁conservation	-7191
▁distribution	-7192
aa	-7193
fit	-7194
zed	-7195
whel	-7196
▁000	-7197
▁cup	-7198
▁dut	-7199
▁vẹn	-7200
enced	-7201
itors	-7202
▁2015	-7203
▁orch	-7204
▁seek	-7205
▁youth	-7206
▁clever	-7207
▁columb	-7208
▁formed	-7209
▁forests	-7210
▁kitchen	-7211
▁apparent	-7212
▁overwhel	-7213
▁ancestors	-7214
▁producing	-7215
iat	-7216
nes	-7217
▁85	-7218
▁lơ	-7219
▁sne	-7220
▁trật	-7221
▁auton	-7222
▁duyệt	-7223
▁notes	-7224
▁peter	-7225
▁handle	-7226
▁attacks	-7227
▁intense	-7228
▁lessons	-7229
▁prosper	-7230
▁pollution	-7231
▁physically	-7232
ênh	-7233
aust	-7234
oint	-7235
rove	-7236
▁mầm	-7237
▁tựa	-7238
▁fert	-7239
▁reci	-7240
cience	-7241
▁linked	-7242
▁dioxide	-7243
▁illustr	-7244
▁musical	-7245
▁disorder	-7246
▁hydrogen	-7247
▁marketing	-7248
▁challenging	-7249
▁ốm	-7250
▁amp	-7251
▁cắm	-7252
▁mòn	-7253
opher	-7254
power	-7255
thand	-7256
▁atom	-7257
▁dots	-7258
▁hạch	-7259
▁fewer	-7260
▁recom	-7261
▁perman	-7262
▁trials	-7263
▁constit	-7264
▁embrace	-7265
▁outcome	-7266
▁windows	-7267
▁mathematical	-7268
di	-7269
hr	-7270
▁700	-7271
ended	-7272
▁cope	-7273
▁trộm	-7274
▁compl	-7275
▁candid	-7276
▁myster	-7277
▁season	-7278
▁equally	-7279
▁quarter	-7280
▁confront	-7281
▁generally	-7282
▁combination	-7283
roc	-7284
frie	-7285
▁800	-7286
▁ack	-7287
▁bat	-7288
▁hig	-7289
▁tím	-7290
▁đàm	-7291
▁2005	-7292
▁lũng	-7293
▁lifes	-7294
▁polar	-7295
▁crispr	-7296
▁joined	-7297
▁poetry	-7298
▁mistake	-7299
▁primary	-7300
▁stronger	-7301
▁interface	-7302
▁protected	-7303
▁evolutionary	-7304
uits	-7305
very	-7306
▁bẩn	-7307
▁nur	-7308
▁toy	-7309
▁vit	-7310
▁biom	-7311
▁grid	-7312
▁hãng	-7313
▁luân	-7314
▁subm	-7315
▁vịnh	-7316
▁alien	-7317
▁brook	-7318
▁false	-7319
▁weigh	-7320
▁muslim	-7321
▁instruct	-7322
▁fundamentally	-7323
▁psychological	-7324
mas	-7325
ona	-7326
ula	-7327
▁bes	-7328
▁sah	-7329
▁tựu	-7330
▁xám	-7331
ublic	-7332
▁gods	-7333
▁pole	-7334
▁ride	-7335
ension	-7336
▁globe	-7337
▁grade	-7338
▁honey	-7339
▁former	-7340
▁palest	-7341
▁anxiety	-7342
▁illegal	-7343
▁molecular	-7344
▁processing	-7345
ded	-7346
iêp	-7347
nda	-7348
obi	-7349
ora	-7350
▁chả	-7351
▁dốc	-7352
▁ván	-7353
▁blah	-7354
▁dust	-7355
▁golf	-7356
▁penn	-7357
▁skill	-7358
▁triều	-7359
▁budget	-7360
inations	-7361
▁fathers	-7362
▁infected	-7363
òm	-7364
can	-7365
now	-7366
▁lờ	-7367
life	-7368
▁dội	-7369
▁gai	-7370
▁ghê	-7371
▁ráp	-7372
▁2012	-7373
▁lánh	-7374
▁nhện	-7375
▁outc	-7376
▁swed	-7377
▁thép	-7378
▁chose	-7379
▁cyber	-7380
▁flash	-7381
▁huynh	-7382
▁shoot	-7383
▁tasks	-7384
ulating	-7385
▁compar	-7386
▁cortex	-7387
▁frustr	-7388
▁length	-7389
▁nghiệt	-7390
▁applied	-7391
▁refugee	-7392
▁participate	-7393
▁uk	-7394
abol	-7395
elly	-7396
▁ngụ	-7397
▁nén	-7398
▁bron	-7399
▁lens	-7400
▁lăng	-7401
▁mere	-7402
▁nhin	-7403
▁thầm	-7404
▁explo	-7405
▁navig	-7406
▁bottle	-7407
▁burning	-7408
▁muscles	-7409
▁minister	-7410
▁awareness	-7411
▁corruption	-7412
bly	-7413
▁mổ	-7414
▁ol	-7415
▁lic	-7416
▁pho	-7417
▁pra	-7418
ingly	-7419
▁acqu	-7420
▁bias	-7421
▁diss	-7422
▁khói	-7423
▁toan	-7424
▁wash	-7425
porary	-7426
urance	-7427
▁tests	-7428
iciency	-7429
▁button	-7430
▁contem	-7431
▁sample	-7432
▁script	-7433
▁toilet	-7434
▁winter	-7435
▁amounts	-7436
▁disrupt	-7437
▁extract	-7438
▁methods	-7439
▁parking	-7440
▁concentr	-7441
▁prepared	-7442
▁transformation	-7443
orb	-7444
the	-7445
▁bấy	-7446
▁cas	-7447
▁dạo	-7448
▁sac	-7449
▁4000	-7450
▁acid	-7451
▁elim	-7452
▁rome	-7453
▁shar	-7454
▁việt	-7455
▁cương	-7456
▁guard	-7457
▁shall	-7458
▁spell	-7459
▁conver	-7460
▁rising	-7461
▁breathe	-7462
▁fiction	-7463
▁contrast	-7464
▁dramatic	-7465
▁emerging	-7466
▁instrument	-7467
▁intellectual	-7468
down	-7469
▁kem	-7470
ament	-7471
rooms	-7472
ville	-7473
▁phun	-7474
▁charl	-7475
▁bubble	-7476
▁repair	-7477
▁selling	-7478
▁therapy	-7479
▁vehicle	-7480
▁appropri	-7481
▁consumer	-7482
▁explained	-7483
▁interests	-7484
▁personally	-7485
pal	-7486
rus	-7487
▁nụ	-7488
▁os	-7489
▁antic	-7490
▁champ	-7491
▁huyền	-7492
▁nhiếp	-7493
▁plays	-7494
▁pound	-7495
▁taste	-7496
▁border	-7497
▁remove	-7498
▁scenar	-7499
▁chicken	-7500
▁domestic	-7501
▁authority	-7502
▁uncertain	-7503
ener	-7504
▁rio	-7505
▁tes	-7506
arant	-7507
▁eric	-7508
▁surf	-7509
▁abuse	-7510
▁anger	-7511
▁boxes	-7512
▁driven	-7513
▁centers	-7514
▁comment	-7515
▁feature	-7516
▁airplane	-7517
▁disaster	-7518
▁childrens	-7519
▁restaurant	-7520
▁transportation	-7521
sen	-7522
▁odd	-7523
▁ped	-7524
▁xích	-7525
ortion	-7526
▁awful	-7527
▁chron	-7528
▁horse	-7529
▁renew	-7530
▁roads	-7531
▁driver	-7532
▁player	-7533
▁britain	-7534
▁channel	-7535
▁carrying	-7536
▁republic	-7537
▁swimming	-7538
▁components	-7539
▁surrounded	-7540
ek	-7541
han	-7542
▁55	-7543
abet	-7544
cons	-7545
▁fib	-7546
▁gab	-7547
▁jaz	-7548
▁rig	-7549
child	-7550
gment	-7551
▁runs	-7552
▁admit	-7553
▁congo	-7554
▁curve	-7555
▁negot	-7556
▁arrest	-7557
▁chimpan	-7558
▁opinion	-7559
▁stretch	-7560
ela	-7561
▁ak	-7562
▁ni	-7563
▁rh	-7564
▁xô	-7565
uary	-7566
▁hãm	-7567
while	-7568
▁cống	-7569
▁disg	-7570
▁mans	-7571
▁migr	-7572
▁pill	-7573
▁rush	-7574
▁dolph	-7575
▁judge	-7576
▁liked	-7577
inction	-7578
▁acknow	-7579
▁aspects	-7580
▁suppose	-7581
▁william	-7582
▁implement	-7583
▁mechanism	-7584
▁photographs	-7585
▁circumstances	-7586
gets	-7587
▁cối	-7588
▁gãy	-7589
▁hít	-7590
▁kêt	-7591
▁cord	-7592
▁advoc	-7593
▁audio	-7594
▁goods	-7595
▁rooms	-7596
▁union	-7597
▁scratch	-7598
▁abstract	-7599
▁outcomes	-7600
▁rational	-7601
bia	-7602
anes	-7603
build	-7604
▁fake	-7605
▁khan	-7606
▁memor	-7607
▁rhyth	-7608
▁ridic	-7609
▁steel	-7610
▁topic	-7611
▁buying	-7612
▁struck	-7613
▁transfer	-7614
▁determine	-7615
▁functions	-7616
▁mathematic	-7617
▁inspiration	-7618
▁participants	-7619
.5	-7620
ua	-7621
va	-7622
keys	-7623
▁unh	-7624
andon	-7625
▁thắt	-7626
▁vạch	-7627
rition	-7628
▁bones	-7629
▁chart	-7630
▁dress	-7631
▁schol	-7632
▁shock	-7633
▁songs	-7634
▁tweet	-7635
▁sharks	-7636
▁herself	-7637
▁largely	-7638
▁sensors	-7639
▁solving	-7640
▁overcome	-7641
▁policies	-7642
▁collected	-7643
▁statement	-7644
▁dimensions	-7645
▁đỗ	-7646
gers	-7647
▁xôi	-7648
▁ages	-7649
▁anat	-7650
▁budd	-7651
▁cats	-7652
▁dish	-7653
▁mile	-7654
▁mộng	-7655
▁khiêm	-7656
▁label	-7657
▁oxford	-7658
▁waters	-7659
aneously	-7660
▁battery	-7661
▁defense	-7662
▁offered	-7663
▁persons	-7664
▁trigger	-7665
▁viruses	-7666
▁breaking	-7667
▁combined	-7668
▁hypothes	-7669
▁practical	-7670
▁sophisticated	-7671
cal	-7672
isa	-7673
▁vé	-7674
▁đẽ	-7675
ault	-7676
nday	-7677
oked	-7678
▁voc	-7679
acles	-7680
▁busy	-7681
▁chao	-7682
▁cươi	-7683
▁dang	-7684
▁giọt	-7685
▁inch	-7686
▁trừu	-7687
▁fears	-7688
▁ngưng	-7689
▁analog	-7690
▁explos	-7691
▁placed	-7692
▁carried	-7693
▁destruction	-7694
lem	-7695
min	-7696
rog	-7697
▁120	-7698
▁mum	-7699
▁rub	-7700
▁cere	-7701
▁gray	-7702
▁hits	-7703
▁tack	-7704
▁xăng	-7705
▁cents	-7706
▁decre	-7707
▁dedic	-7708
▁rocks	-7709
▁chocol	-7710
▁critic	-7711
▁khoang	-7712
▁medium	-7713
▁borders	-7714
▁suicide	-7715
▁convince	-7716
▁pregnant	-7717
▁romantic	-7718
▁newspaper	-7719
▁recording	-7720
▁innovative	-7721
▁underwater	-7722
▁collaboration	-7723
nel	-7724
iled	-7725
wich	-7726
▁băt	-7727
▁gối	-7728
▁roy	-7729
▁tel	-7730
▁xíu	-7731
▁elev	-7732
▁lect	-7733
▁lồng	-7734
▁unus	-7735
▁zoom	-7736
▁aspir	-7737
▁guide	-7738
▁khiêu	-7739
▁advance	-7740
▁harvest	-7741
▁recorded	-7742
▁relevant	-7743
▁wondered	-7744
▁invention	-7745
▁laboratory	-7746
▁literature	-7747
▁passionate	-7748
▁technological	-7749
ga	-7750
ũi	-7751
▁29	-7752
▁33	-7753
▁bồ	-7754
▁ib	-7755
▁ms	-7756
▁ủy	-7757
▁bốc	-7758
▁rit	-7759
▁sin	-7760
agers	-7761
print	-7762
rogen	-7763
▁2006	-7764
▁gand	-7765
▁mall	-7766
▁soạn	-7767
father	-7768
▁cards	-7769
▁higgs	-7770
▁scary	-7771
▁ingred	-7772
▁records	-7773
▁emergency	-7774
▁increases	-7775
bul	-7776
▁37	-7777
▁bá	-7778
▁lỡ	-7779
rors	-7780
▁der	-7781
▁nôi	-7782
▁nản	-7783
▁pix	-7784
▁enzy	-7785
▁jose	-7786
anging	-7787
▁insul	-7788
▁title	-7789
▁hoping	-7790
▁monkey	-7791
▁senses	-7792
▁closely	-7793
▁distinct	-7794
▁appreciate	-7795
▁discussion	-7796
igm	-7797
vas	-7798
▁hụt	-7799
▁lợn	-7800
▁ooh	-7801
being	-7802
▁item	-7803
▁jane	-7804
▁liêu	-7805
▁lock	-7806
▁rely	-7807
▁summ	-7808
▁user	-7809
▁liver	-7810
▁plate	-7811
▁recyc	-7812
▁extrem	-7813
▁guarant	-7814
▁overall	-7815
▁painful	-7816
▁pushing	-7817
▁reported	-7818
▁providing	-7819
▁strangers	-7820
toc	-7821
▁ây	-7822
▁ôm	-7823
umps	-7824
▁mah	-7825
▁spr	-7826
▁vụn	-7827
▁acts	-7828
▁arth	-7829
▁bicy	-7830
▁bỗng	-7831
▁dece	-7832
▁exte	-7833
▁lùng	-7834
▁obst	-7835
▁stro	-7836
ptions	-7837
▁vital	-7838
▁chuông	-7839
▁evolve	-7840
▁inject	-7841
▁cartoon	-7842
▁exposed	-7843
▁housing	-7844
▁birthday	-7845
▁confident	-7846
▁practices	-7847
eros	-7848
iban	-7849
▁mig	-7850
▁súc	-7851
▁vứt	-7852
adesh	-7853
plant	-7854
▁khẩn	-7855
▁sets	-7856
▁suit	-7857
lessly	-7858
▁lying	-7859
▁maxim	-7860
▁toxic	-7861
▁hunger	-7862
▁solved	-7863
▁tested	-7864
▁classes	-7865
▁constra	-7866
▁diverse	-7867
▁vessels	-7868
▁director	-7869
▁provided	-7870
▁dramatically	-7871
▁experiencing	-7872
cond	-7873
▁glu	-7874
▁hat	-7875
▁lơn	-7876
▁mri	-7877
▁raw	-7878
▁đạc	-7879
▁alph	-7880
▁diam	-7881
▁pool	-7882
▁sept	-7883
▁input	-7884
▁khoái	-7885
▁score	-7886
▁drives	-7887
▁stayed	-7888
▁surviv	-7889
▁citizen	-7890
▁tonight	-7891
▁framework	-7892
▁mortality	-7893
▁unexpected	-7894
▁explanation	-7895
uk	-7896
▁oc	-7897
▁xứ	-7898
otes	-7899
▁dop	-7900
▁dot	-7901
▁gor	-7902
▁kar	-7903
▁nsa	-7904
▁quỷ	-7905
acing	-7906
▁dere	-7907
▁korea	-7908
▁presc	-7909
▁tight	-7910
▁trươc	-7911
▁enable	-7912
▁fright	-7913
▁murder	-7914
▁patent	-7915
▁storyt	-7916
▁accurate	-7917
▁customers	-7918
▁wellbeing	-7919
uck	-7920
▁cm	-7921
▁xà	-7922
oded	-7923
▁gũi	-7924
▁kẹo	-7925
▁rôi	-7926
▁tea	-7927
orous	-7928
uting	-7929
▁giật	-7930
▁phím	-7931
▁rice	-7932
▁ther	-7933
making	-7934
▁fruit	-7935
▁secure	-7936
▁whales	-7937
▁hormone	-7938
▁pacific	-7939
▁welcome	-7940
▁wherever	-7941
▁colleague	-7942
▁continued	-7943
▁depending	-7944
▁gentlemen	-7945
alu	-7946
▁lê	-7947
abil	-7948
kind	-7949
▁bee	-7950
▁ell	-7951
▁gom	-7952
▁nhị	-7953
iders	-7954
lines	-7955
orter	-7956
▁giáp	-7957
▁grab	-7958
▁lake	-7959
▁phác	-7960
▁quad	-7961
arrass	-7962
▁coach	-7963
▁coord	-7964
▁flies	-7965
▁recru	-7966
▁anonym	-7967
▁devast	-7968
▁rocket	-7969
▁volume	-7970
▁metabol	-7971
▁contains	-7972
▁drinking	-7973
▁infinite	-7974
▁economies	-7975
▁embarrass	-7976
mo	-7977
oken	-7978
▁bốt	-7979
▁dow	-7980
▁luc	-7981
▁pas	-7982
▁sup	-7983
▁tôm	-7984
▁nồng	-7985
▁root	-7986
▁thơi	-7987
▁colum	-7988
▁fluid	-7989
▁grows	-7990
▁assume	-7991
▁august	-7992
▁native	-7993
▁neural	-7994
▁dropped	-7995
▁eastern	-7996
▁efforts	-7997
▁islands	-7998
▁unusual	-7999
▁equation	-8000
▁breathing	-8001
▁chocolate	-8002
▁committed	-8003
▁infection	-8004
▁sensitive	-8005
▁terrorism	-8006
▁philosophy	-8007
▁populations	-8008
õng	-8009
▁uh	-8010
▁đệ	-8011
▁cắp	-8012
▁2001	-8013
▁brun	-8014
▁cash	-8015
▁cath	-8016
▁mượn	-8017
▁nhạt	-8018
▁xuân	-8019
phones	-8020
▁depth	-8021
▁fifth	-8022
▁triệt	-8023
▁barely	-8024
▁greenh	-8025
▁lifest	-8026
▁combine	-8027
▁reaching	-8028
▁alzheimers	-8029
▁dở	-8030
▁ái	-8031
bage	-8032
etch	-8033
seng	-8034
▁vag	-8035
▁clus	-8036
▁ears	-8037
▁ethi	-8038
▁imper	-8039
▁tired	-8040
▁agreed	-8041
▁deploy	-8042
▁genius	-8043
▁evening	-8044
▁frankly	-8045
▁samples	-8046
▁complain	-8047
▁engaging	-8048
▁horrible	-8049
▁password	-8050
▁percentage	-8051
▁productive	-8052
▁psychology	-8053
▁fortunately	-8054
bai	-8055
uls	-8056
rets	-8057
▁bos	-8058
▁cab	-8059
▁dim	-8060
▁dơi	-8061
▁phu	-8062
▁ram	-8063
oster	-8064
sters	-8065
▁bike	-8066
▁buff	-8067
▁dign	-8068
▁peng	-8069
▁stom	-8070
▁tạng	-8071
▁50000	-8072
▁brave	-8073
▁minor	-8074
▁orbit	-8075
▁units	-8076
▁upper	-8077
▁acting	-8078
▁corres	-8079
▁disney	-8080
▁narrow	-8081
▁federal	-8082
▁floating	-8083
▁printing	-8084
▁suggests	-8085
▁celebrate	-8086
▁recognized	-8087
km	-8088
▁sọ	-8089
alia	-8090
cend	-8091
cose	-8092
▁aim	-8093
▁aqu	-8094
▁bin	-8095
▁chẽ	-8096
▁len	-8097
▁2004	-8098
▁bách	-8099
▁jenn	-8100
illing	-8101
▁aster	-8102
▁bangl	-8103
▁foods	-8104
▁hotel	-8105
▁prime	-8106
▁tiêng	-8107
▁trend	-8108
▁trừng	-8109
▁vượng	-8110
▁deaths	-8111
▁entrop	-8112
▁punish	-8113
▁airport	-8114
▁diction	-8115
▁discipl	-8116
▁figures	-8117
▁imagined	-8118
▁occasion	-8119
▁sunlight	-8120
▁spreading	-8121
▁technique	-8122
▁architects	-8123
▁conclusion	-8124
▁struggling	-8125
▁mt	-8126
ardo	-8127
lies	-8128
▁bìa	-8129
▁han	-8130
▁hun	-8131
▁lắc	-8132
▁nin	-8133
vable	-8134
▁củng	-8135
▁joke	-8136
▁leap	-8137
▁lego	-8138
▁tiễn	-8139
ipping	-8140
▁chest	-8141
▁dozen	-8142
▁fixed	-8143
▁pengu	-8144
▁plans	-8145
▁boring	-8146
▁ensure	-8147
▁khoáng	-8148
▁owners	-8149
▁proced	-8150
▁afterno	-8151
▁fingers	-8152
▁indones	-8153
▁paralle	-8154
▁dopamine	-8155
▁occurred	-8156
▁standards	-8157
▁controlled	-8158
▁mechanical	-8159
▁applications	-8160
wr	-8161
vey	-8162
xin	-8163
▁31	-8164
adic	-8165
over	-8166
ship	-8167
what	-8168
▁sed	-8169
▁tăm	-8170
tocin	-8171
using	-8172
▁cock	-8173
▁hiếp	-8174
▁lưỡi	-8175
▁móng	-8176
▁mươi	-8177
▁wine	-8178
▁style	-8179
raction	-8180
▁ignore	-8181
▁stands	-8182
etically	-8183
▁decline	-8184
▁drivers	-8185
▁monkeys	-8186
▁operate	-8187
▁academic	-8188
▁illusion	-8189
▁meetings	-8190
▁organism	-8191
▁oxytocin	-8192
▁sandwich	-8193
▁privilege	-8194
▁chì	-8195
▁ngừ	-8196
▁boom	-8197
▁pand	-8198
▁viêm	-8199
▁accum	-8200
▁error	-8201
▁hawai	-8202
▁roots	-8203
▁virút	-8204
▁argent	-8205
▁finger	-8206
▁scream	-8207
▁electro	-8208
▁finance	-8209
▁kingdom	-8210
▁paradox	-8211
▁carolina	-8212
▁subjects	-8213
▁treating	-8214
▁presented	-8215
▁historical	-8216
▁exploration	-8217
▁transformed	-8218
bar	-8219
ups	-8220
▁34	-8221
▁nề	-8222
foot	-8223
▁bol	-8224
▁bướ	-8225
▁gaz	-8226
▁mến	-8227
eding	-8228
▁chay	-8229
▁clar	-8230
▁glad	-8231
▁hipp	-8232
▁rỗng	-8233
▁silk	-8234
▁trán	-8235
bridge	-8236
▁20000	-8237
▁whist	-8238
▁limits	-8239
▁papers	-8240
▁poster	-8241
▁shakes	-8242
▁stable	-8243
▁writer	-8244
▁discrim	-8245
▁parallel	-8246
▁somewhat	-8247
▁vehicles	-8248
▁destroyed	-8249
▁searching	-8250
▁underground	-8251
aws	-8252
esh	-8253
ros	-8254
▁ấu	-8255
▁ẩm	-8256
rich	-8257
▁fbi	-8258
osure	-8259
stand	-8260
▁blow	-8261
▁loan	-8262
▁ours	-8263
▁peak	-8264
▁sant	-8265
friend	-8266
▁clock	-8267
▁males	-8268
▁toler	-8269
▁fabric	-8270
▁fisher	-8271
▁hearts	-8272
▁russia	-8273
▁insulin	-8274
▁mammals	-8275
▁nowhere	-8276
▁origami	-8277
▁district	-8278
▁magnetic	-8279
▁measured	-8280
▁computing	-8281
▁instruments	-8282
iro	-8283
▁irr	-8284
▁orb	-8285
▁tôt	-8286
▁đậm	-8287
night	-8288
▁prem	-8289
▁sque	-8290
mented	-8291
▁split	-8292
▁repeat	-8293
▁silent	-8294
▁appears	-8295
▁aristot	-8296
▁crucial	-8297
▁glucose	-8298
▁presence	-8299
▁continues	-8300
▁precisely	-8301
ima	-8302
▁rã	-8303
▁xỉ	-8304
▁190	-8305
▁alb	-8306
▁băn	-8307
▁dẻo	-8308
▁gon	-8309
▁lều	-8310
▁đúc	-8311
icted	-8312
uther	-8313
▁2014	-8314
▁chợt	-8315
▁hiêu	-8316
▁june	-8317
▁plot	-8318
▁prec	-8319
▁falls	-8320
▁stere	-8321
▁truck	-8322
▁behave	-8323
▁worker	-8324
▁install	-8325
▁traveled	-8326
▁villages	-8327
▁identical	-8328
▁treatments	-8329
eo	-8330
wl	-8331
iny	-8332
uff	-8333
▁oz	-8334
icit	-8335
▁mơi	-8336
▁axit	-8337
▁dict	-8338
▁file	-8339
▁hind	-8340
▁khéo	-8341
▁mice	-8342
▁pump	-8343
ashing	-8344
ements	-8345
▁embed	-8346
▁phiêu	-8347
▁extent	-8348
▁careful	-8349
▁dancing	-8350
▁taliban	-8351
▁repeated	-8352
▁arguments	-8353
▁greenhouse	-8354
▁distributed	-8355
▁interactions	-8356
ôm	-8357
iêt	-8358
▁joe	-8359
▁mau	-8360
▁sav	-8361
nders	-8362
▁2003	-8363
▁coin	-8364
▁hoãn	-8365
▁muối	-8366
▁ngột	-8367
▁pace	-8368
▁pink	-8369
▁sacr	-8370
ateful	-8371
▁banks	-8372
▁doors	-8373
▁tràng	-8374
▁agency	-8375
▁dialog	-8376
▁pushed	-8377
▁affects	-8378
▁cheaper	-8379
▁conclud	-8380
▁habitat	-8381
connected	-8382
▁isolated	-8383
▁speakers	-8384
▁spiritual	-8385
▁uncomfort	-8386
▁accomplish	-8387
▁efficiency	-8388
yt	-8389
ado	-8390
ads	-8391
ini	-8392
▁mộc	-8393
▁rac	-8394
bally	-8395
▁cham	-8396
▁debt	-8397
▁firm	-8398
▁loop	-8399
▁xoắn	-8400
arency	-8401
▁aston	-8402
▁giáng	-8403
▁luồng	-8404
▁nutri	-8405
section	-8406
▁establ	-8407
▁golden	-8408
▁newton	-8409
▁string	-8410
▁surely	-8411
▁feeding	-8412
▁official	-8413
▁properly	-8414
▁christian	-8415
▁intention	-8416
▁antibiotics	-8417
▁transparency	-8418
aud	-8419
ket	-8420
war	-8421
ờng	-8422
▁dịp	-8423
▁mim	-8424
organ	-8425
quang	-8426
venue	-8427
▁cous	-8428
▁dear	-8429
▁ford	-8430
▁mail	-8431
▁mike	-8432
▁tenn	-8433
▁cryst	-8434
▁datab	-8435
▁trail	-8436
▁views	-8437
▁absorb	-8438
▁heroes	-8439
▁invite	-8440
▁plenty	-8441
▁powers	-8442
▁sahara	-8443
▁existed	-8444
▁impress	-8445
▁wanting	-8446
▁astronom	-8447
▁brooklyn	-8448
▁hormones	-8449
▁apartment	-8450
▁operation	-8451
▁recognition	-8452
ăp	-8453
har	-8454
▁48	-8455
ares	-8456
igen	-8457
▁192	-8458
▁mốc	-8459
▁flip	-8460
▁hanh	-8461
▁jord	-8462
▁logo	-8463
▁brian	-8464
▁fuels	-8465
▁ignor	-8466
▁opera	-8467
▁theme	-8468
▁trump	-8469
▁xưởng	-8470
iveness	-8471
▁frozen	-8472
▁hacker	-8473
▁khuynh	-8474
▁negoti	-8475
▁triang	-8476
▁anticip	-8477
▁beliefs	-8478
▁classic	-8479
▁distant	-8480
▁reverse	-8481
▁external	-8482
▁football	-8483
▁instinct	-8484
▁provides	-8485
▁encounter	-8486
▁accessible	-8487
▁determined	-8488
ata	-8489
▁ao	-8490
▁lô	-8491
▁bẫy	-8492
▁dur	-8493
▁lag	-8494
▁piz	-8495
cohol	-8496
eness	-8497
▁phat	-8498
▁tony	-8499
▁dense	-8500
agement	-8501
▁albert	-8502
▁crying	-8503
▁neuron	-8504
▁orange	-8505
▁phrase	-8506
▁xquang	-8507
american	-8508
▁letting	-8509
▁passing	-8510
▁removed	-8511
▁slavery	-8512
▁administ	-8513
▁daughters	-8514
▁permanent	-8515
▁journalist	-8516
▁strategies	-8517
▁expectations	-8518
▁implications	-8519
vis	-8520
imet	-8521
oons	-8522
▁gác	-8523
▁lận	-8524
▁măt	-8525
▁ngớ	-8526
▁vât	-8527
▁tiệm	-8528
▁apoll	-8529
▁sales	-8530
illance	-8531
▁legacy	-8532
▁abandon	-8533
▁alcohol	-8534
▁fortune	-8535
▁protest	-8536
▁reconst	-8537
▁produces	-8538
▁afternoon	-8539
▁consumers	-8540
▁indonesia	-8541
▁grandfather	-8542
▁personality	-8543
▁uncomfortable	-8544
bby	-8545
iac	-8546
▁bẻ	-8547
iday	-8548
irds	-8549
▁kìa	-8550
▁lux	-8551
▁lúa	-8552
▁phe	-8553
▁xay	-8554
iform	-8555
inter	-8556
▁hưng	-8557
▁hổng	-8558
▁ngẫm	-8559
▁tent	-8560
▁tịch	-8561
▁đuối	-8562
profit	-8563
▁phase	-8564
▁walks	-8565
▁settle	-8566
▁shadow	-8567
▁threed	-8568
▁victim	-8569
▁chances	-8570
▁cooking	-8571
▁raising	-8572
▁concepts	-8573
▁synthetic	-8574
▁contribute	-8575
▁transplant	-8576
▁appropriate	-8577
ẳm	-8578
agn	-8579
eda	-8580
opy	-8581
anny	-8582
born	-8583
burg	-8584
lers	-8585
ocks	-8586
▁bóc	-8587
▁cay	-8588
▁doz	-8589
▁jam	-8590
mates	-8591
▁leon	-8592
▁odds	-8593
▁crops	-8594
▁greek	-8595
▁persu	-8596
▁skept	-8597
▁terra	-8598
▁wound	-8599
▁howard	-8600
▁nurses	-8601
▁proper	-8602
▁signed	-8603
▁traged	-8604
▁savings	-8605
▁stranger	-8606
▁vaccines	-8607
▁cambridge	-8608
▁bangladesh	-8609
▁collecting	-8610
▁connecting	-8611
▁microscope	-8612
▁neuroscience	-8613
▁surveillance	-8614
▁dê	-8615
hand	-8616
iens	-8617
▁ash	-8618
▁fer	-8619
▁gig	-8620
▁kor	-8621
▁nhĩ	-8622
▁rèn	-8623
▁bind	-8624
▁glac	-8625
▁lord	-8626
▁ngẩn	-8627
▁scot	-8628
▁sink	-8629
▁blank	-8630
▁louis	-8631
▁lungs	-8632
▁route	-8633
▁adding	-8634
▁arabic	-8635
▁arctic	-8636
▁athlet	-8637
▁berlin	-8638
▁farmer	-8639
▁flower	-8640
▁pocket	-8641
▁recept	-8642
▁thiêng	-8643
▁collaps	-8644
▁flowers	-8645
▁orchest	-8646
▁darkness	-8647
▁download	-8648
▁diagnosed	-8649
▁exploring	-8650
▁frequency	-8651
▁measuring	-8652
▁educational	-8653
gia	-8654
aurs	-8655
roid	-8656
▁hóc	-8657
▁kha	-8658
▁earn	-8659
▁gest	-8660
▁khoá	-8661
▁limb	-8662
▁melt	-8663
lusive	-8664
▁antar	-8665
▁bronx	-8666
▁enemy	-8667
▁holds	-8668
▁curren	-8669
▁daniel	-8670
▁excell	-8671
▁hungry	-8672
▁sisters	-8673
▁smarter	-8674
▁grateful	-8675
▁particle	-8676
▁shakespe	-8677
▁insurance	-8678
▁apparently	-8679
▁capitalism	-8680
▁conventional	-8681
▁productivity	-8682
cet	-8683
che	-8684
▁bể	-8685
▁ss	-8686
▁cài	-8687
▁cáp	-8688
▁mưu	-8689
▁pic	-8690
▁tơi	-8691
agger	-8692
aland	-8693
itory	-8694
▁aside	-8695
▁crack	-8696
▁jesus	-8697
▁pharm	-8698
▁smoke	-8699
▁adjust	-8700
▁satisf	-8701
▁density	-8702
▁dignity	-8703
▁accepted	-8704
▁component	-8705
▁corporate	-8706
▁lifestyle	-8707
▁performing	-8708
▁resolution	-8709
▁volunteers	-8710
add	-8711
▁vả	-8712
aret	-8713
▁bấm	-8714
▁bội	-8715
▁bực	-8716
▁nàn	-8717
▁soi	-8718
▁boss	-8719
▁icon	-8720
▁phơi	-8721
▁tong	-8722
▁tort	-8723
▁trag	-8724
▁digit	-8725
▁khoăn	-8726
▁nerve	-8727
▁immigr	-8728
▁missed	-8729
▁spanish	-8730
▁threats	-8731
▁atlantic	-8732
▁captured	-8733
▁ethiopia	-8734
▁includes	-8735
▁generated	-8736
▁objective	-8737
▁september	-8738
▁economists	-8739
▁electronic	-8740
▁consequence	-8741
▁sustainability	-8742
gi	-8743
ato	-8744
cale	-8745
illy	-8746
itar	-8747
▁1.5	-8748
▁fox	-8749
▁lơi	-8750
▁xộn	-8751
▁độn	-8752
inson	-8753
▁1500	-8754
▁dipl	-8755
▁gang	-8756
▁gore	-8757
▁tanz	-8758
▁thẳm	-8759
▁ugly	-8760
▁hello	-8761
▁hardly	-8762
▁authent	-8763
▁granted	-8764
▁impacts	-8765
▁achieved	-8766
▁creature	-8767
▁obsessed	-8768
▁socalled	-8769
▁alzheimer	-8770
▁disorders	-8771
▁disability	-8772
▁protecting	-8773
▁entrepreneur	-8774
ja	-8775
ika	-8776
mal	-8777
nic	-8778
ras	-8779
uts	-8780
▁kb	-8781
lete	-8782
▁ngộ	-8783
▁2050	-8784
▁meal	-8785
▁nươc	-8786
▁abund	-8787
▁drove	-8788
▁grace	-8789
▁legis	-8790
▁dozens	-8791
▁concert	-8792
▁magical	-8793
▁stomach	-8794
▁elephant	-8795
▁feminist	-8796
▁depressed	-8797
▁meanwhile	-8798
▁application	-8799
greg	-8800
ooth	-8801
▁wol	-8802
otion	-8803
▁chọc	-8804
▁loai	-8805
▁phôi	-8806
▁blame	-8807
▁ought	-8808
▁pyram	-8809
▁veter	-8810
▁andrew	-8811
▁apollo	-8812
▁confir	-8813
▁diabet	-8814
▁michel	-8815
▁initial	-8816
▁confused	-8817
▁christmas	-8818
▁selection	-8819
▁permission	-8820
▁automatically	-8821
▁enh	-8822
▁bull	-8823
▁quặc	-8824
▁burst	-8825
▁chaos	-8826
▁chief	-8827
▁disag	-8828
▁seeds	-8829
▁chuyền	-8830
▁facial	-8831
▁thrown	-8832
▁truyên	-8833
▁concern	-8834
▁involves	-8835
▁theories	-8836
▁elections	-8837
▁establish	-8838
▁nutrition	-8839
▁interestingly	-8840
rey	-8841
▁42	-8842
▁vờ	-8843
case	-8844
lims	-8845
pass	-8846
▁sắm	-8847
field	-8848
house	-8849
opard	-8850
▁ants	-8851
▁glam	-8852
▁rose	-8853
▁thấm	-8854
imeter	-8855
▁derek	-8856
▁dirty	-8857
▁drawn	-8858
▁marry	-8859
▁fertil	-8860
▁portra	-8861
▁sphere	-8862
▁divided	-8863
▁imaging	-8864
▁pointed	-8865
▁visited	-8866
▁collapse	-8867
▁diabetes	-8868
▁globally	-8869
▁aristotle	-8870
▁dinosaurs	-8871
▁paintings	-8872
▁prisoners	-8873
▁translate	-8874
▁presentation	-8875
iếc	-8876
rix	-8877
see	-8878
▁hơ	-8879
▁lh	-8880
apor	-8881
kins	-8882
uous	-8883
▁202	-8884
▁911	-8885
▁nâu	-8886
▁sáo	-8887
▁tip	-8888
▁vạn	-8889
▁wif	-8890
▁asks	-8891
▁neck	-8892
▁obes	-8893
▁tape	-8894
▁outer	-8895
▁proof	-8896
▁spark	-8897
▁stack	-8898
▁tears	-8899
▁tries	-8900
▁wings	-8901
▁yours	-8902
▁borrow	-8903
▁filter	-8904
▁injury	-8905
▁talent	-8906
▁earthqu	-8907
▁extinct	-8908
▁january	-8909
▁liberal	-8910
▁sleeping	-8911
▁regardless	-8912
▁represented	-8913
▁entertainment	-8914
▁neighborhoods	-8915
ửng	-8916
▁rỉ	-8917
adel	-8918
fall	-8919
lson	-8920
tery	-8921
▁bầy	-8922
▁nap	-8923
▁rap	-8924
▁reh	-8925
▁rìa	-8926
▁uốn	-8927
▁vội	-8928
aming	-8929
▁club	-8930
▁gulf	-8931
▁homo	-8932
▁ipod	-8933
▁wats	-8934
▁humor	-8935
▁pizza	-8936
▁stops	-8937
▁telom	-8938
▁corals	-8939
▁poison	-8940
▁reveal	-8941
▁simult	-8942
▁disgust	-8943
▁obesity	-8944
▁section	-8945
▁stephen	-8946
▁backwards	-8947
▁reference	-8948
▁directions	-8949
▁geographic	-8950
▁mysterious	-8951
wa	-8952
asi	-8953
▁dỗ	-8954
▁kệ	-8955
hips	-8956
keep	-8957
onic	-8958
phas	-8959
udes	-8960
▁193	-8961
▁bai	-8962
▁huỷ	-8963
▁kat	-8964
▁lui	-8965
igned	-8966
▁1900	-8967
▁jazz	-8968
▁nhấp	-8969
▁rail	-8970
▁ramp	-8971
▁sons	-8972
▁tube	-8973
arters	-8974
▁chrom	-8975
▁relax	-8976
▁shake	-8977
▁skull	-8978
forward	-8979
▁lovely	-8980
▁nearby	-8981
▁prices	-8982
▁rivers	-8983
▁stores	-8984
▁monitor	-8985
▁nghiêng	-8986
▁reports	-8987
▁seattle	-8988
▁focusing	-8989
▁organize	-8990
▁household	-8991
▁additional	-8992
▁boundaries	-8993
▁commission	-8994
▁interacting	-8995
yan	-8996
▁cd	-8997
▁mỡ	-8998
▁fda	-8999
▁tiv	-9000
▁trễ	-9001
inder	-9002
isons	-9003
▁2016	-9004
▁chằm	-9005
▁eliz	-9006
▁fool	-9007
▁josh	-9008
▁lượn	-9009
nhagen	-9010
▁adopt	-9011
▁evalu	-9012
▁italy	-9013
▁kevin	-9014
▁polio	-9015
▁purch	-9016
▁reput	-9017
▁whale	-9018
▁arthur	-9019
▁buried	-9020
▁latest	-9021
▁locked	-9022
▁profit	-9023
▁rescue	-9024
▁victor	-9025
▁amongst	-9026
▁charity	-9027
▁inspire	-9028
▁johnson	-9029
▁muslims	-9030
▁passeng	-9031
▁picking	-9032
▁synthes	-9033
▁dialogue	-9034
▁alexander	-9035
▁argentina	-9036
▁elsewhere	-9037
▁inspiring	-9038
▁commitment	-9039
▁copenhagen	-9040
▁engagement	-9041
▁fascinated	-9042
▁mechanisms	-9043
ye	-9044
ati	-9045
bie	-9046
ocr	-9047
atts	-9048
ifer	-9049
opic	-9050
▁dồn	-9051
▁rạn	-9052
▁wid	-9053
athan	-9054
aving	-9055
▁carl	-9056
▁cute	-9057
▁emma	-9058
▁mood	-9059
▁paras	-9060
▁wired	-9061
▁yield	-9062
▁nelson	-9063
▁oldest	-9064
▁perpet	-9065
▁retire	-9066
▁silver	-9067
▁spoken	-9068
▁unable	-9069
children	-9070
▁circuit	-9071
▁deserve	-9072
▁robotic	-9073
▁wheelch	-9074
▁appeared	-9075
▁laughing	-9076
▁paradigm	-9077
▁scholars	-9078
▁tracking	-9079
▁delivered	-9080
▁industries	-9081
▁44	-9082
eres	-9083
rous	-9084
▁nom	-9085
▁đãi	-9086
inton	-9087
orest	-9088
worth	-9089
▁sach	-9090
▁salt	-9091
▁whis	-9092
▁chile	-9093
▁chênh	-9094
▁nhiễu	-9095
▁phông	-9096
▁tower	-9097
▁tráng	-9098
unction	-9099
▁geomet	-9100
▁jersey	-9101
▁spider	-9102
▁trauma	-9103
▁watson	-9104
ographer	-9105
▁atlanta	-9106
▁clients	-9107
▁disturb	-9108
▁entropy	-9109
▁helpful	-9110
▁diagnosis	-9111
▁virtually	-9112
▁38	-9113
ione	-9114
lets	-9115
oton	-9116
▁bot	-9117
▁hơp	-9118
▁ire	-9119
▁lũy	-9120
▁đêu	-9121
ckets	-9122
▁2013	-9123
▁beet	-9124
▁cược	-9125
▁xoáy	-9126
▁đoạt	-9127
▁đụng	-9128
acular	-9129
▁bored	-9130
▁bruno	-9131
▁likes	-9132
▁manif	-9133
▁sheep	-9134
through	-9135
▁relate	-9136
▁females	-9137
▁instant	-9138
▁officer	-9139
▁suspect	-9140
▁winning	-9141
▁included	-9142
▁recovery	-9143
▁returned	-9144
▁shoulder	-9145
▁intuitive	-9146
▁investing	-9147
▁journalists	-9148
▁46	-9149
▁xế	-9150
emen	-9151
fast	-9152
▁gìn	-9153
▁hận	-9154
▁rạp	-9155
▁tủy	-9156
ained	-9157
iment	-9158
▁6000	-9159
▁cảng	-9160
▁flew	-9161
▁fung	-9162
▁furn	-9163
▁guns	-9164
▁kiss	-9165
▁mãnh	-9166
▁ngửi	-9167
▁nhàm	-9168
▁thus	-9169
othing	-9170
▁chiên	-9171
▁femin	-9172
▁lagos	-9173
▁lions	-9174
▁fusion	-9175
▁mainly	-9176
▁needle	-9177
▁diagram	-9178
▁regener	-9179
▁zealand	-9180
▁reminded	-9181
▁remaining	-9182
▁rainforest	-9183
▁advertising	-9184
▁uncertainty	-9185
▁instructions	-9186
▁characteristics	-9187
ali	-9188
ena	-9189
▁72	-9190
▁bh	-9191
free	-9192
igan	-9193
phia	-9194
▁130	-9195
▁nạp	-9196
▁nứt	-9197
▁rod	-9198
belie	-9199
ested	-9200
think	-9201
▁agre	-9202
▁alle	-9203
▁đung	-9204
▁armed	-9205
▁mayor	-9206
▁shout	-9207
▁sperm	-9208
anthrop	-9209
century	-9210
▁diplom	-9211
▁empire	-9212
▁guitar	-9213
▁layers	-9214
▁rhythm	-9215
▁sacred	-9216
▁singap	-9217
▁horizon	-9218
▁percept	-9219
▁promote	-9220
▁pulling	-9221
▁speaker	-9222
▁tissues	-9223
▁dedicated	-9224
▁immediate	-9225
▁inevitable	-9226
▁operations	-9227
▁ridiculous	-9228
▁interactive	-9229
▁shakespeare	-9230
▁universities	-9231
▁cp	-9232
▁cọ	-9233
▁iq	-9234
ague	-9235
esis	-9236
onal	-9237
thal	-9238
▁ate	-9239
▁bồn	-9240
▁thỏ	-9241
▁xen	-9242
isted	-9243
oding	-9244
▁abra	-9245
▁brut	-9246
▁hier	-9247
▁mush	-9248
▁pour	-9249
▁quấy	-9250
ocking	-9251
▁pause	-9252
▁chosen	-9253
▁ending	-9254
▁fought	-9255
▁nhường	-9256
▁prosec	-9257
▁rarely	-9258
▁robust	-9259
▁served	-9260
▁thoáng	-9261
▁voting	-9262
▁entered	-9263
▁hanging	-9264
▁painted	-9265
▁poorest	-9266
▁rebuild	-9267
▁tragedy	-9268
▁attached	-9269
▁reducing	-9270
▁restrict	-9271
▁scenario	-9272
▁affordable	-9273
▁originally	-9274
▁underlying	-9275
▁established	-9276
▁improvement	-9277
cs	-9278
ởm	-9279
ema	-9280
▁eb	-9281
mart	-9282
rome	-9283
▁bóp	-9284
▁dịu	-9285
▁lon	-9286
▁sét	-9287
▁tẩy	-9288
▁vần	-9289
▁axis	-9290
▁fulf	-9291
▁laid	-9292
▁ngục	-9293
▁quận	-9294
▁soap	-9295
▁whit	-9296
makers	-9297
▁bombs	-9298
▁koran	-9299
▁physi	-9300
▁butter	-9301
▁expans	-9302
▁joseph	-9303
▁sweden	-9304
▁anthrop	-9305
▁barrier	-9306
▁enterpr	-9307
▁mandela	-9308
▁miracle	-9309
▁parties	-9310
▁sensory	-9311
▁figuring	-9312
ologically	-9313
▁conflicts	-9314
▁gradually	-9315
▁supported	-9316
▁behavioral	-9317
▁controvers	-9318
▁ecosystems	-9319
▁functional	-9320
▁identified	-9321
▁cooperation	-9322
kh	-9323
ipe	-9324
atar	-9325
hamm	-9326
part	-9327
▁hip	-9328
eared	-9329
leton	-9330
ogram	-9331
▁bond	-9332
▁chớp	-9333
▁quit	-9334
▁trêu	-9335
encing	-9336
▁craft	-9337
▁reefs	-9338
▁reson	-9339
▁usual	-9340
▁arrive	-9341
▁catast	-9342
▁hawaii	-9343
▁shaped	-9344
▁chromos	-9345
▁chronic	-9346
▁consume	-9347
▁deliber	-9348
▁delight	-9349
▁designs	-9350
▁exhaust	-9351
▁iceland	-9352
▁ireland	-9353
▁choosing	-9354
▁embedded	-9355
▁philadel	-9356
▁shooting	-9357
▁mechanics	-9358
▁suggested	-9359
▁teenagers	-9360
▁disappoint	-9361
▁predictions	-9362
eds	-9363
udd	-9364
▁lọ	-9365
oing	-9366
▁dys	-9367
▁nhủ	-9368
▁vất	-9369
ansas	-9370
▁dick	-9371
▁drum	-9372
▁jean	-9373
▁lone	-9374
▁sett	-9375
▁trùm	-9376
▁vắng	-9377
▁30000	-9378
▁nghia	-9379
▁spots	-9380
▁thich	-9381
▁xướng	-9382
▁eradic	-9383
▁autonom	-9384
▁essence	-9385
▁observe	-9386
▁opposed	-9387
▁prepare	-9388
▁reduced	-9389
▁flexible	-9390
▁hardware	-9391
▁secondly	-9392
▁stations	-9393
▁tanzania	-9394
▁announced	-9395
▁nutrients	-9396
▁responses	-9397
▁singapore	-9398
▁photography	-9399
▁transparent	-9400
▁globalization	-9401
bab	-9402
cel	-9403
ili	-9404
lan	-9405
▁dì	-9406
▁hả	-9407
ason	-9408
wing	-9409
▁20.	-9410
▁dẹp	-9411
▁lấn	-9412
▁moz	-9413
▁nưa	-9414
▁reb	-9415
▁rộn	-9416
alian	-9417
break	-9418
▁beer	-9419
▁cens	-9420
▁chóc	-9421
▁pier	-9422
▁trọn	-9423
▁xách	-9424
▁giông	-9425
▁gonna	-9426
▁incor	-9427
▁upset	-9428
▁arrang	-9429
▁attrib	-9430
▁jordan	-9431
▁luther	-9432
▁paraly	-9433
▁bicycle	-9434
▁elected	-9435
▁publish	-9436
▁surgeon	-9437
▁africans	-9438
▁baseball	-9439
▁concerns	-9440
▁currency	-9441
▁inherent	-9442
▁suffered	-9443
▁reactions	-9444
▁hypothesis	-9445
▁philadelphia	-9446
asy	-9447
rid	-9448
▁jh	-9449
▁ku	-9450
▁mk	-9451
bial	-9452
erge	-9453
vest	-9454
▁goi	-9455
▁léo	-9456
flies	-9457
ifice	-9458
stone	-9459
▁kenn	-9460
▁khoe	-9461
▁matt	-9462
▁phật	-9463
▁susp	-9464
▁tống	-9465
▁flour	-9466
▁flows	-9467
▁legit	-9468
▁loves	-9469
▁mixed	-9470
▁parli	-9471
▁lincol	-9472
▁output	-9473
▁failing	-9474
▁olympic	-9475
▁attitude	-9476
▁replaced	-9477
▁vertical	-9478
▁abilities	-9479
▁forgotten	-9480
▁predicted	-9481
▁prototype	-9482
▁religions	-9483
▁sentences	-9484
▁similarly	-9485
▁afterwards	-9486
▁collectively	-9487
▁communications	-9488
hh	-9489
ẹo	-9490
dam	-9491
emp	-9492
êng	-9493
▁gạt	-9494
▁jac	-9495
▁kìm	-9496
class	-9497
iture	-9498
lings	-9499
▁bars	-9500
▁crew	-9501
▁khen	-9502
▁knee	-9503
▁rent	-9504
▁rick	-9505
▁till	-9506
▁wise	-9507
▁angle	-9508
▁hemis	-9509
▁marsh	-9510
▁monit	-9511
▁naked	-9512
▁tempt	-9513
▁defend	-9514
▁intent	-9515
▁killer	-9516
▁occurs	-9517
▁uncons	-9518
▁chapter	-9519
▁circles	-9520
▁comprom	-9521
▁council	-9522
▁happier	-9523
▁implant	-9524
▁neander	-9525
▁vitamin	-9526
▁writers	-9527
▁controls	-9528
▁perceive	-9529
▁wireless	-9530
▁animation	-9531
▁anonymous	-9532
▁elephants	-9533
▁integrated	-9534
▁resilience	-9535
▁satellites	-9536
▁smartphone	-9537
▁ingredients	-9538
▁successfully	-9539
▁professionals	-9540
oy	-9541
ủa	-9542
lad	-9543
net	-9544
▁lg	-9545
▁đè	-9546
mers	-9547
▁bồi	-9548
▁dệt	-9549
▁ghé	-9550
▁lột	-9551
▁sud	-9552
▁yog	-9553
abeth	-9554
ading	-9555
▁chat	-9556
▁heal	-9557
▁kiêm	-9558
▁conce	-9559
▁finds	-9560
▁queen	-9561
▁sharp	-9562
▁sướng	-9563
▁actors	-9564
▁agenda	-9565
▁conven	-9566
▁intrig	-9567
▁abraham	-9568
▁balloon	-9569
▁georgia	-9570
▁lincoln	-9571
▁manager	-9572
▁accounts	-9573
▁shopping	-9574
▁survived	-9575
▁documents	-9576
▁electrons	-9577
▁investors	-9578
▁recommend	-9579
▁assumptions	-9580
▁breakthrough	-9581
gu	-9582
ecd	-9583
gra	-9584
▁kề	-9585
agon	-9586
aids	-9587
aine	-9588
imed	-9589
▁dại	-9590
▁obl	-9591
▁tag	-9592
▁đốm	-9593
athon	-9594
cript	-9595
erved	-9596
itate	-9597
▁2030	-9598
▁cape	-9599
▁cass	-9600
▁diên	-9601
▁hans	-9602
▁mold	-9603
▁nghê	-9604
▁pháo	-9605
▁thor	-9606
▁tivi	-9607
▁trop	-9608
parent	-9609
▁expon	-9610
▁inher	-9611
▁ngoai	-9612
▁pione	-9613
▁emphas	-9614
▁landed	-9615
▁lawyer	-9616
▁smooth	-9617
▁twenty	-9618
▁russian	-9619
▁unbelie	-9620
▁estimate	-9621
▁lighting	-9622
▁measures	-9623
▁psychiat	-9624
▁alongside	-9625
▁medication	-9626
des	-9627
org	-9628
▁xé	-9629
izer	-9630
oids	-9631
real	-9632
view	-9633
▁hái	-9634
▁rùa	-9635
▁rốt	-9636
▁via	-9637
archy	-9638
front	-9639
▁alan	-9640
▁batt	-9641
▁bono	-9642
▁boun	-9643
▁cott	-9644
▁dism	-9645
▁diễu	-9646
▁epis	-9647
▁nhóc	-9648
▁refr	-9649
▁tear	-9650
▁điền	-9651
▁actor	-9652
▁knock	-9653
▁respo	-9654
▁trash	-9655
▁interf	-9656
▁spinal	-9657
▁tricks	-9658
changing	-9659
▁clinton	-9660
▁compete	-9661
▁convert	-9662
▁fastest	-9663
▁distract	-9664
▁fraction	-9665
▁listened	-9666
▁sciences	-9667
▁virginia	-9668
▁highlight	-9669
▁positions	-9670
▁optimistic	-9671
▁philanthrop	-9672
neg	-9673
rol	-9674
▁4.	-9675
▁dv	-9676
▁gg	-9677
▁lt	-9678
▁lụ	-9679
▁mớ	-9680
icks	-9681
okes	-9682
umes	-9683
▁2.5	-9684
▁dập	-9685
▁rực	-9686
▁wra	-9687
▁ếch	-9688
angel	-9689
▁aint	-9690
▁giặt	-9691
▁outs	-9692
▁pale	-9693
▁rặng	-9694
▁sier	-9695
▁synd	-9696
▁tank	-9697
▁taxi	-9698
▁algae	-9699
▁buồng	-9700
▁incar	-9701
▁intim	-9702
▁trúng	-9703
▁ultra	-9704
▁matrix	-9705
▁merely	-9706
▁rating	-9707
▁senior	-9708
▁stroke	-9709
▁yorker	-9710
▁contrad	-9711
▁license	-9712
▁answered	-9713
▁delivery	-9714
▁distingu	-9715
▁educated	-9716
▁proposed	-9717
▁economist	-9718
▁everybodys	-9719
▁disappeared	-9720
▁significantly	-9721
asm	-9722
isy	-9723
ribe	-9724
▁búa	-9725
▁jih	-9726
▁kir	-9727
▁vel	-9728
cence	-9729
icial	-9730
▁caps	-9731
▁dies	-9732
▁dump	-9733
▁holy	-9734
▁nets	-9735
▁nuốt	-9736
▁thạo	-9737
▁thốt	-9738
▁whoa	-9739
▁thiêu	-9740
▁10.000	-9741
▁approx	-9742
▁breaks	-9743
▁loving	-9744
▁regret	-9745
▁scales	-9746
▁besides	-9747
▁touched	-9748
▁counting	-9749
▁dominant	-9750
▁judgment	-9751
▁mosquito	-9752
▁reliable	-9753
▁scotland	-9754
▁ignorance	-9755
▁separated	-9756
▁telephone	-9757
▁attractive	-9758
▁frequently	-9759
▁governance	-9760
▁wheelchair	-9761
▁controlling	-9762
▁surprisingly	-9763
▁representation	-9764
ila	-9765
bits	-9766
west	-9767
yard	-9768
zees	-9769
▁aes	-9770
▁bru	-9771
▁gậy	-9772
▁sếp	-9773
▁upd	-9774
▁wil	-9775
capes	-9776
inals	-9777
stage	-9778
▁bướm	-9779
▁dưng	-9780
▁khâu	-9781
▁lean	-9782
▁nair	-9783
▁pigs	-9784
▁thắn	-9785
apping	-9786
▁gases	-9787
▁harry	-9788
▁hoành	-9789
▁jelly	-9790
▁pilot	-9791
▁basket	-9792
▁branch	-9793
▁compos	-9794
▁edward	-9795
▁emerge	-9796
▁jewish	-9797
▁beneath	-9798
▁ethical	-9799
▁forming	-9800
▁involve	-9801
▁liberia	-9802
▁mindset	-9803
▁staying	-9804
▁informed	-9805
▁variation	-9806
▁dictionary	-9807
▁parliament	-9808
▁reputation	-9809
▁suggesting	-9810
▁threatened	-9811
▁unconscious	-9812
cut	-9813
kyo	-9814
tsd	-9815
▁52	-9816
▁xơ	-9817
▁ào	-9818
....	-9819
cont	-9820
uman	-9821
▁350	-9822
▁bời	-9823
▁eve	-9824
▁von	-9825
liest	-9826
▁airb	-9827
▁alas	-9828
▁bold	-9829
▁gate	-9830
▁hire	-9831
▁ngây	-9832
▁ptsd	-9833
▁radi	-9834
▁sits	-9835
▁trèo	-9836
▁tước	-9837
▁viet	-9838
itudes	-9839
length	-9840
▁60000	-9841
▁bears	-9842
▁begun	-9843
▁schem	-9844
▁tokyo	-9845
▁bother	-9846
▁slides	-9847
▁stages	-9848
▁tunnel	-9849
▁islamic	-9850
▁lecture	-9851
▁masters	-9852
▁warning	-9853
▁americas	-9854
▁calories	-9855
▁intimate	-9856
▁invested	-9857
▁exception	-9858
▁survivors	-9859
▁researcher	-9860
▁telescopes	-9861
▁terrifying	-9862
▁chimpanzees	-9863
▁simultaneously	-9864
gm	-9865
cor	-9866
▁ôn	-9867
▁ừm	-9868
ador	-9869
inas	-9870
▁cưu	-9871
▁jar	-9872
▁kur	-9873
▁rna	-9874
▁toa	-9875
▁tởm	-9876
▁vòm	-9877
▁wet	-9878
▁xăm	-9879
▁biod	-9880
▁micr	-9881
▁stor	-9882
asters	-9883
employ	-9884
ospher	-9885
▁bitco	-9886
▁fiber	-9887
▁jihad	-9888
▁meter	-9889
▁roles	-9890
▁utter	-9891
▁combat	-9892
▁dating	-9893
▁excuse	-9894
▁heaven	-9895
▁shrink	-9896
▁trends	-9897
▁weapon	-9898
▁luckily	-9899
▁microph	-9900
▁redwood	-9901
▁screens	-9902
▁secrets	-9903
▁database	-9904
▁innocent	-9905
▁symmetry	-9906
▁throwing	-9907
▁activists	-9908
▁elizabeth	-9909
▁footprint	-9910
▁motivated	-9911
▁seemingly	-9912
▁discoveries	-9913
▁genetically	-9914
▁spectacular	-9915
▁constitution	-9916
hop	-9917
▁6.	-9918
▁jc	-9919
▁um	-9920
alty	-9921
osal	-9922
viol	-9923
▁cig	-9924
▁dời	-9925
▁rog	-9926
▁vọt	-9927
allow	-9928
ashed	-9929
burgh	-9930
▁butt	-9931
▁drew	-9932
▁túng	-9933
▁vacu	-9934
▁album	-9935
▁downt	-9936
▁panel	-9937
▁realm	-9938
▁roman	-9939
▁county	-9940
▁gandhi	-9941
▁gravit	-9942
▁halluc	-9943
▁render	-9944
▁safely	-9945
▁analyze	-9946
▁couples	-9947
▁hunting	-9948
▁restore	-9949
▁shelter	-9950
▁smoking	-9951
▁walmart	-9952
▁manifest	-9953
▁textbook	-9954
▁unemploy	-9955
▁conducted	-9956
▁expanding	-9957
▁expertise	-9958
▁perceived	-9959
▁primarily	-9960
▁reduction	-9961
▁constructed	-9962
▁programming	-9963
▁agricultural	-9964
▁conservative	-9965
▁corporations	-9966
▁grandchildren	-9967
bc	-9968
bot	-9969
bow	-9970
chn	-9971
▁54	-9972
imag	-9973
ober	-9974
tail	-9975
usal	-9976
▁10.	-9977
▁900	-9978
▁ech	-9979
▁nãy	-9980
▁vặt	-9981
ollar	-9982
▁bags	-9983
▁dive	-9984
▁feyn	-9985
▁pile	-9986
▁tied	-9987
▁camps	-9988
▁detro	-9989
▁elses	-9990
▁fault	-9991
▁funds	-9992
▁inhab	-9993
▁khoai	-9994
▁khuất	-9995
▁leban	-9996
▁nurse	-9997
▁cheers	-9998
▁digest	-9999
▁makers	-10000
▁pollen	-10001
▁prosth	-10002
▁adopted	-10003
▁printed	-10004
ustration	-10005
▁crossing	-10006
▁exposure	-10007
▁friendly	-10008
▁improved	-10009
▁navigate	-10010
▁someones	-10011
▁versions	-10012
▁astronaut	-10013
▁initially	-10014
▁musicians	-10015
▁nonprofit	-10016
▁predators	-10017
▁earthquake	-10018
▁physicists	-10019
▁demonstrate	-10020
▁discrimination	-10021
ốp	-10022
mes	-10023
rie	-10024
▁47	-10025
▁bỉ	-10026
▁xá	-10027
eday	-10028
iece	-10029
▁bẩm	-10030
▁keo	-10031
▁khe	-10032
▁lit	-10033
▁rab	-10034
▁váy	-10035
bbles	-10036
▁1800	-10037
▁anes	-10038
▁hood	-10039
▁nhạo	-10040
▁suối	-10041
▁võng	-10042
ancing	-10043
ometer	-10044
▁alice	-10045
▁bible	-10046
▁delhi	-10047
▁parks	-10048
▁stake	-10049
▁threw	-10050
▁attend	-10051
▁cheese	-10052
▁extend	-10053
▁hubble	-10054
▁injust	-10055
▁orient	-10056
▁richer	-10057
▁tackle	-10058
▁thrive	-10059
▁tribes	-10060
▁widely	-10061
yearolds	-10062
▁aggress	-10063
▁consult	-10064
▁garbage	-10065
▁harness	-10066
▁imagery	-10067
▁indigen	-10068
▁targets	-10069
▁agencies	-10070
▁disabled	-10071
▁leonardo	-10072
▁stereoty	-10073
▁performed	-10074
▁volunteer	-10075
▁consistent	-10076
▁frustrated	-10077
▁remembered	-10078
▁electronics	-10079
▁probability	-10080
▁surrounding	-10081
▁contemporary	-10082
▁overwhelming	-10083
▁vulnerability	-10084
▁43	-10085
▁bio	-10086
▁cóc	-10087
▁nếp	-10088
▁râu	-10089
▁đòn	-10090
▁đắm	-10091
aired	-10092
grade	-10093
rover	-10094
▁aunt	-10095
▁brid	-10096
▁dawn	-10097
▁hook	-10098
▁labs	-10099
▁ohio	-10100
▁carib	-10101
▁civic	-10102
▁embry	-10103
▁numer	-10104
▁sarah	-10105
▁satur	-10106
▁silly	-10107
▁stasi	-10108
▁tesla	-10109
▁thiền	-10110
▁tribe	-10111
▁choáng	-10112
▁commod	-10113
▁nights	-10114
▁offers	-10115
▁pursue	-10116
▁stimul	-10117
▁subtle	-10118
▁volcan	-10119
▁academy	-10120
▁immense	-10121
▁lawyers	-10122
▁nairobi	-10123
▁october	-10124
▁periods	-10125
▁pyramid	-10126
▁routine	-10127
▁shocked	-10128
▁believes	-10129
▁honestly	-10130
▁penguins	-10131
▁preserve	-10132
▁physicist	-10133
▁substance	-10134
▁approaches	-10135
▁indigenous	-10136
▁terrorists	-10137
▁astonishing	-10138
▁intervention	-10139
omp	-10140
▁kg	-10141
▁rỡ	-10142
illa	-10143
▁awk	-10144
▁pir	-10145
▁sty	-10146
▁vin	-10147
arest	-10148
state	-10149
▁brad	-10150
▁chày	-10151
▁chổi	-10152
▁nike	-10153
▁orph	-10154
▁thèm	-10155
▁tiêp	-10156
▁tùng	-10157
▁chuối	-10158
▁devil	-10159
▁drill	-10160
▁items	-10161
parents	-10162
▁adoles	-10163
▁assess	-10164
▁capita	-10165
▁panels	-10166
▁partly	-10167
▁scores	-10168
▁shrimp	-10169
▁awkward	-10170
▁ceiling	-10171
▁emerged	-10172
▁persist	-10173
▁dolphins	-10174
▁entering	-10175
▁explains	-10176
▁michigan	-10177
▁offering	-10178
▁syndrome	-10179
▁breakfast	-10180
▁physician	-10181
▁residents	-10182
▁terrorist	-10183
▁prediction	-10184
▁experimental	-10185
ls	-10186
ín	-10187
bed	-10188
▁dm	-10189
▁jf	-10190
aeda	-10191
away	-10192
fold	-10193
hour	-10194
neys	-10195
ocol	-10196
▁mẹo	-10197
▁sna	-10198
▁đồn	-10199
▁ướt	-10200
▁1930	-10201
▁bổng	-10202
▁fred	-10203
▁mate	-10204
▁mông	-10205
▁diver	-10206
▁divor	-10207
▁jones	-10208
▁safer	-10209
▁saudi	-10210
▁spray	-10211
▁burned	-10212
▁caring	-10213
▁excess	-10214
▁sevent	-10215
▁sierra	-10216
▁stored	-10217
▁beating	-10218
▁blockch	-10219
▁cancers	-10220
▁charlie	-10221
▁elderly	-10222
▁feynman	-10223
▁fragile	-10224
▁serving	-10225
▁storage	-10226
▁channels	-10227
▁conclude	-10228
▁precious	-10229
▁strongly	-10230
▁audiences	-10231
▁calculate	-10232
▁dependent	-10233
▁explosion	-10234
▁gathering	-10235
▁greenland	-10236
▁healthier	-10237
▁instantly	-10238
▁sculpture	-10239
▁extinction	-10240
▁opensource	-10241
▁traditions	-10242
▁humanitarian	-10243
▁temperatures	-10244
ôt	-10245
apy	-10246
ira	-10247
top	-10248
ella	-10249
gent	-10250
▁bọt	-10251
▁bộc	-10252
▁kin	-10253
▁mao	-10254
▁pms	-10255
▁sap	-10256
ctica	-10257
keley	-10258
▁chùm	-10259
▁eleg	-10260
▁genu	-10261
▁badly	-10262
▁chiêu	-10263
▁fancy	-10264
▁helic	-10265
▁punch	-10266
▁santa	-10267
▁ships	-10268
▁shore	-10269
▁yemen	-10270
▁tragic	-10271
osterone	-10272
▁farming	-10273
▁highway	-10274
▁category	-10275
▁covering	-10276
▁genetics	-10277
▁insights	-10278
▁momentum	-10279
▁realizing	-10280
▁relatives	-10281
▁collaborative	-10282
bru	-10283
lor	-10284
cher	-10285
ette	-10286
ilty	-10287
ulum	-10288
▁bât	-10289
▁hâm	-10290
▁ink	-10291
itage	-10292
▁buzz	-10293
▁bỏng	-10294
▁cuba	-10295
▁guid	-10296
▁infl	-10297
▁lgbt	-10298
▁nhồi	-10299
▁peru	-10300
▁sail	-10301
▁wing	-10302
▁balls	-10303
▁conqu	-10304
▁elite	-10305
▁gramm	-10306
▁sheet	-10307
▁venus	-10308
eration	-10309
▁burden	-10310
▁chướng	-10311
▁hiding	-10312
▁nghiền	-10313
▁damaged	-10314
▁enables	-10315
▁enforce	-10316
▁nonviol	-10317
▁seeking	-10318
▁someday	-10319
▁arrested	-10320
▁barriers	-10321
▁bathroom	-10322
▁berkeley	-10323
▁decrease	-10324
▁incident	-10325
▁olympics	-10326
▁adventure	-10327
▁expansion	-10328
▁precision	-10329
▁stability	-10330
▁antarctica	-10331
▁incentives	-10332
▁motivation	-10333
▁prosperity	-10334
▁association	-10335
▁innovations	-10336
▁participation	-10337
ụn	-10338
nia	-10339
rit	-10340
▁98	-10341
aded	-10342
itan	-10343
walk	-10344
▁bát	-10345
▁gân	-10346
▁ibm	-10347
▁inn	-10348
▁ion	-10349
▁mcd	-10350
▁ngô	-10351
▁nộp	-10352
▁pit	-10353
▁spa	-10354
▁sug	-10355
▁voy	-10356
▁zip	-10357
berry	-10358
ribly	-10359
ureau	-10360
xious	-10361
▁chèo	-10362
▁chéo	-10363
▁găng	-10364
▁leaf	-10365
▁nhốt	-10366
▁palm	-10367
▁trội	-10368
▁vary	-10369
▁chiêm	-10370
▁chuồn	-10371
▁gabby	-10372
▁grain	-10373
▁index	-10374
▁plain	-10375
▁quyêt	-10376
reshold	-10377
▁200000	-10378
▁crowds	-10379
▁execut	-10380
▁jumped	-10381
▁stones	-10382
▁trains	-10383
▁traits	-10384
▁vacuum	-10385
▁briefly	-10386
▁detroit	-10387
▁educate	-10388
▁founded	-10389
▁harmful	-10390
▁helicop	-10391
▁seroton	-10392
▁traject	-10393
▁artistic	-10394
▁branches	-10395
▁columbia	-10396
▁extended	-10397
▁homeless	-10398
▁observed	-10399
▁protocol	-10400
▁transact	-10401
▁completed	-10402
▁excellent	-10403
▁microbial	-10404
▁receiving	-10405
▁capability	-10406
▁categories	-10407
▁compelling	-10408
▁difficulty	-10409
▁simplicity	-10410
▁supporting	-10411
▁competitive	-10412
▁observation	-10413
▁occasionally	-10414
▁testosterone	-10415
mod	-10416
ấng	-10417
▁bù	-10418
arsh	-10419
asty	-10420
igma	-10421
rist	-10422
uity	-10423
utan	-10424
▁dil	-10425
▁doạ	-10426
▁kẹp	-10427
▁lef	-10428
▁lứa	-10429
▁ner	-10430
0.000	-10431
acola	-10432
chool	-10433
level	-10434
▁ampl	-10435
▁anno	-10436
▁bern	-10437
▁bump	-10438
▁damn	-10439
▁gieo	-10440
▁horr	-10441
▁jung	-10442
▁lion	-10443
▁mama	-10444
▁mode	-10445
▁ngợi	-10446
▁nhục	-10447
▁uber	-10448
erable	-10449
utical	-10450
▁arrow	-10451
▁bonds	-10452
▁chips	-10453
▁colom	-10454
▁dutch	-10455
▁genoc	-10456
▁memes	-10457
▁spont	-10458
▁squee	-10459
▁warri	-10460
▁weeke	-10461
▁winds	-10462
▁deadly	-10463
▁infant	-10464
▁lonely	-10465
▁marvel	-10466
▁prince	-10467
▁trucks	-10468
▁vắcxin	-10469
▁revenue	-10470
▁articles	-10471
▁december	-10472
▁peaceful	-10473
▁robotics	-10474
▁intuition	-10475
▁procedure	-10476
▁threshold	-10477
▁previously	-10478
▁psychologists	-10479
19	-10480
iva	-10481
ache	-10482
char	-10483
rics	-10484
▁1.2	-10485
▁cưa	-10486
▁mcc	-10487
▁mât	-10488
▁nhí	-10489
▁tut	-10490
▁đơi	-10491
▁đệm	-10492
▁đục	-10493
▁beij	-10494
▁biếm	-10495
▁cafe	-10496
▁lười	-10497
▁sulf	-10498
▁xray	-10499
▁điêm	-10500
▁chuck	-10501
▁cruel	-10502
▁exped	-10503
▁rover	-10504
▁thumb	-10505
▁dragon	-10506
▁guilty	-10507
▁sensor	-10508
andering	-10509
iversity	-10510
▁bitcoin	-10511
▁everest	-10512
▁kennedy	-10513
▁logical	-10514
▁symbols	-10515
aceutical	-10516
▁clothing	-10517
▁mobility	-10518
▁remained	-10519
▁atmospher	-10520
▁guarantee	-10521
▁improving	-10522
tr	-10523
tz	-10524
ẽn	-10525
bod	-10526
iêc	-10527
▁86	-10528
▁96	-10529
▁eu	-10530
aire	-10531
onia	-10532
rate	-10533
▁bam	-10534
▁kos	-10535
▁ưng	-10536
adays	-10537
maker	-10538
world	-10539
▁buck	-10540
▁calm	-10541
▁dâng	-10542
▁fate	-10543
▁hông	-10544
▁mant	-10545
▁nháy	-10546
▁nhét	-10547
▁pitt	-10548
▁sườn	-10549
▁vành	-10550
▁wolf	-10551
▁yale	-10552
ulting	-10553
▁alpha	-10554
▁asian	-10555
▁irony	-10556
▁screw	-10557
▁spain	-10558
▁stead	-10559
▁sudan	-10560
bitious	-10561
igation	-10562
▁accent	-10563
▁chains	-10564
▁column	-10565
▁cotton	-10566
▁editor	-10567
▁formal	-10568
▁inches	-10569
▁purple	-10570
▁ticket	-10571
▁anatomy	-10572
▁hackers	-10573
▁methane	-10574
▁trapped	-10575
▁uniform	-10576
▁cocacola	-10577
▁gathered	-10578
▁intended	-10579
▁agreement	-10580
▁broadcast	-10581
▁detection	-10582
▁furniture	-10583
▁locations	-10584
▁serotonin	-10585
▁workplace	-10586
▁assumption	-10587
▁exhibition	-10588
▁punishment	-10589
▁translated	-10590
10	-10591
boo	-10592
equ	-10593
fly	-10594
hot	-10595
nde	-10596
nik	-10597
east	-10598
olic	-10599
road	-10600
▁189	-10601
▁hao	-10602
▁jet	-10603
▁kan	-10604
▁nón	-10605
▁thề	-10606
▁unw	-10607
▁zim	-10608
aches	-10609
orted	-10610
▁1997	-10611
▁2002	-10612
▁bend	-10613
▁ghen	-10614
▁lege	-10615
▁award	-10616
▁chess	-10617
▁edges	-10618
▁excit	-10619
▁farms	-10620
▁khoán	-10621
▁ratio	-10622
▁viral	-10623
▁alaska	-10624
▁childs	-10625
▁decent	-10626
▁emails	-10627
▁scenes	-10628
▁bottles	-10629
▁bubbles	-10630
▁drought	-10631
▁pretend	-10632
▁rolling	-10633
▁diagnost	-10634
▁homework	-10635
▁lefthand	-10636
▁nowadays	-10637
▁reinvent	-10638
▁surfaces	-10639
▁teenager	-10640
▁candidate	-10641
▁estimates	-10642
▁palestine	-10643
▁initiative	-10644
▁prevention	-10645
▁reasonable	-10646
▁wavelength	-10647
▁achievement	-10648
▁acknowledge	-10649
▁desperately	-10650
▁philosopher	-10651
las	-10652
▁ov	-10653
abul	-10654
aran	-10655
etti	-10656
oral	-10657
sylv	-10658
ully	-10659
▁biz	-10660
▁bón	-10661
▁haz	-10662
▁mes	-10663
▁vùi	-10664
▁vịt	-10665
under	-10666
▁cake	-10667
▁cree	-10668
▁irre	-10669
▁lisa	-10670
▁patr	-10671
usalem	-10672
▁crush	-10673
▁emily	-10674
▁links	-10675
▁membr	-10676
▁nghẽn	-10677
▁nhuộm	-10678
▁owner	-10679
▁royal	-10680
▁treas	-10681
▁valid	-10682
▁campus	-10683
▁cosmic	-10684
▁propag	-10685
▁recipe	-10686
▁thread	-10687
sylvania	-10688
▁ongoing	-10689
▁profile	-10690
▁somalia	-10691
▁spreads	-10692
▁comments	-10693
▁heritage	-10694
▁marathon	-10695
▁narrator	-10696
▁revealed	-10697
▁ambitious	-10698
▁countless	-10699
▁injustice	-10700
▁jerusalem	-10701
▁pregnancy	-10702
▁primitive	-10703
▁sacrifice	-10704
▁biologists	-10705
▁explaining	-10706
▁physicians	-10707
▁simulation	-10708
▁christopher	-10709
▁translation	-10710
▁storytelling	-10711
▁concentration	-10712
kg	-10713
ko	-10714
▁5.	-10715
▁7.	-10716
▁bế	-10717
▁fi	-10718
▁ủi	-10719
oman	-10720
umin	-10721
▁180	-10722
▁bac	-10723
▁bùn	-10724
▁dor	-10725
▁dâu	-10726
▁hmm	-10727
▁kep	-10728
▁kit	-10729
▁nhã	-10730
▁pap	-10731
▁đầm	-10732
elled	-10733
▁benj	-10734
▁gien	-10735
▁ipad	-10736
▁mild	-10737
▁neat	-10738
▁seti	-10739
▁soup	-10740
▁vượn	-10741
active	-10742
aneous	-10743
▁cabin	-10744
▁ethan	-10745
▁fried	-10746
▁hopes	-10747
▁khăng	-10748
▁schiz	-10749
▁seats	-10750
▁spons	-10751
▁strip	-10752
▁tends	-10753
▁trace	-10754
▁annual	-10755
▁assets	-10756
▁binary	-10757
▁bureau	-10758
▁domain	-10759
▁mumbai	-10760
▁proton	-10761
▁recess	-10762
▁regime	-10763
▁speaks	-10764
▁wright	-10765
▁cocaine	-10766
▁colored	-10767
▁counsel	-10768
▁dressed	-10769
▁genuine	-10770
▁graphic	-10771
▁hardest	-10772
▁hitting	-10773
▁session	-10774
▁facility	-10775
▁unlikely	-10776
▁interrupt	-10777
▁obstacles	-10778
▁qualities	-10779
▁autonomous	-10780
▁continuous	-10781
▁excitement	-10782
▁interviewed	-10783
▁reconstruct	-10784
▁grandparents	-10785
▁pennsylvania	-10786
▁personalized	-10787
▁transmission	-10788
vy	-10789
ếm	-10790
ctu	-10791
opa	-10792
oto	-10793
▁om	-10794
▁rổ	-10795
▁xả	-10796
arre	-10797
reen	-10798
viet	-10799
▁cắn	-10800
▁dưa	-10801
▁ere	-10802
▁lén	-10803
▁chật	-10804
▁clay	-10805
▁crop	-10806
▁kiêu	-10807
▁pupp	-10808
▁40000	-10809
▁alarm	-10810
▁altru	-10811
▁cliff	-10812
▁costa	-10813
▁eaten	-10814
▁khoác	-10815
▁owned	-10816
▁thiêt	-10817
▁bullet	-10818
▁drones	-10819
▁saturn	-10820
▁tasman	-10821
▁unfold	-10822
▁closing	-10823
▁propose	-10824
▁statist	-10825
▁benjamin	-10826
▁palestin	-10827
▁wildlife	-10828
▁accidents	-10829
▁believing	-10830
▁classical	-10831
▁factories	-10832
▁supermark	-10833
▁describing	-10834
▁impressive	-10835
▁proportion	-10836
▁structural	-10837
▁capabilities	-10838
▁independence	-10839
12	-10840
spe	-10841
▁gk	-10842
▁gy	-10843
▁mỳ	-10844
▁nộ	-10845
ippi	-10846
▁tụi	-10847
umber	-10848
▁cert	-10849
▁fest	-10850
▁gras	-10851
▁hong	-10852
▁july	-10853
▁khép	-10854
▁liby	-10855
▁láng	-10856
▁ngắt	-10857
▁peer	-10858
▁tsun	-10859
▁wifi	-10860
▁25000	-10861
▁bodys	-10862
▁canad	-10863
▁guine	-10864
▁pairs	-10865
▁pride	-10866
▁supre	-10867
▁tooth	-10868
▁wider	-10869
related	-10870
sterdam	-10871
▁claims	-10872
▁harass	-10873
▁manner	-10874
▁pedest	-10875
▁phosph	-10876
▁planes	-10877
▁rubber	-10878
▁soviet	-10879
▁sticks	-10880
▁temple	-10881
▁tongue	-10882
▁tumors	-10883
otherapy	-10884
▁bizarre	-10885
▁closest	-10886
▁healing	-10887
▁italian	-10888
▁jeopard	-10889
▁lebanon	-10890
▁readers	-10891
▁reminds	-10892
▁unclear	-10893
▁register	-10894
▁shifting	-10895
▁socially	-10896
▁spinning	-10897
▁striking	-10898
▁supplies	-10899
▁dimension	-10900
▁estimated	-10901
▁mutations	-10902
▁ownership	-10903
▁terrified	-10904
▁infections	-10905
▁biodiversity	-10906
▁intersection	-10907
▁photographer	-10908
▁administration	-10909
▁mathematicians	-10910
▁cn	-10911
▁dc	-10912
▁hé	-10913
bean	-10914
▁asp	-10915
▁avo	-10916
▁bới	-10917
▁gộp	-10918
▁hán	-10919
▁loa	-10920
▁rum	-10921
▁rệt	-10922
▁sib	-10923
▁đứt	-10924
obile	-10925
▁1994	-10926
▁alab	-10927
▁bats	-10928
▁glor	-10929
▁toys	-10930
▁triv	-10931
▁đàng	-10932
bruary	-10933
▁array	-10934
▁dread	-10935
▁khinh	-10936
▁moder	-10937
▁ngoạn	-10938
▁phồng	-10939
▁plato	-10940
▁shots	-10941
▁synch	-10942
itating	-10943
▁convey	-10944
▁degrad	-10945
▁fibers	-10946
▁garage	-10947
▁laughs	-10948
▁demands	-10949
▁formula	-10950
▁ignored	-10951
▁mississ	-10952
▁neutral	-10953
▁athletes	-10954
▁dynamics	-10955
▁earliest	-10956
▁failures	-10957
▁february	-10958
▁refriger	-10959
▁schizoph	-10960
▁shocking	-10961
▁fortunate	-10962
▁medicines	-10963
▁workforce	-10964
▁blockchain	-10965
▁comparison	-10966
▁enterprise	-10967
▁description	-10968
▁pharmaceutical	-10969
cou	-10970
hus	-10971
▁bj	-10972
▁uv	-10973
appy	-10974
outs	-10975
▁110	-10976
▁bôi	-10977
▁cro	-10978
▁fet	-10979
▁phế	-10980
▁quỵ	-10981
▁rỗi	-10982
▁sew	-10983
orden	-10984
▁banh	-10985
▁beck	-10986
▁clue	-10987
▁dumb	-10988
▁hors	-10989
▁kong	-10990
▁narc	-10991
▁pron	-10992
▁rust	-10993
▁vách	-10994
▁alter	-10995
▁chặng	-10996
▁craig	-10997
▁harsh	-10998
▁nepal	-10999
▁overl	-11000
▁peers	-11001
▁sadly	-11002
▁sched	-11003
▁sixth	-11004
▁steal	-11005
▁tunis	-11006
▁unpre	-11007
▁zones	-11008
▁agents	-11009
▁chairs	-11010
▁gained	-11011
▁linear	-11012
▁proven	-11013
▁endless	-11014
▁enlight	-11015
▁glasses	-11016
▁hivaids	-11017
▁located	-11018
▁profits	-11019
▁stepped	-11020
▁disagree	-11021
▁downtown	-11022
▁incarcer	-11023
▁addiction	-11024
▁amsterdam	-11025
▁empowered	-11026
▁graduated	-11027
▁headlines	-11028
▁radically	-11029
▁universes	-11030
▁encouraged	-11031
▁influenced	-11032
▁profoundly	-11033
▁authorities	-11034
▁limitations	-11035
▁africanamerican	-11036
▁ủ	-11037
eto	-11038
idi	-11039
▁ny	-11040
agos	-11041
amed	-11042
leep	-11043
rine	-11044
uana	-11045
▁cin	-11046
▁hav	-11047
▁jup	-11048
▁vàn	-11049
iance	-11050
otted	-11051
▁prey	-11052
▁prol	-11053
▁quẩn	-11054
▁sale	-11055
▁vene	-11056
▁woke	-11057
soever	-11058
▁knife	-11059
▁rever	-11060
▁risky	-11061
▁sends	-11062
▁unint	-11063
▁whove	-11064
ictions	-11065
▁client	-11066
▁tracks	-11067
cedented	-11068
▁tension	-11069
▁detailed	-11070
▁nitrogen	-11071
▁everyones	-11072
▁preparing	-11073
▁aggressive	-11074
▁appearance	-11075
▁whatsoever	-11076
▁devastating	-11077
▁mississippi	-11078
▁measurements	-11079
80	-11080
apt	-11081
wis	-11082
▁rò	-11083
▁uc	-11084
bian	-11085
made	-11086
orph	-11087
sell	-11088
▁blu	-11089
▁dvd	-11090
▁hut	-11091
▁osc	-11092
▁sứa	-11093
▁xoá	-11094
emics	-11095
rence	-11096
▁1998	-11097
▁anti	-11098
▁enem	-11099
▁gaps	-11100
▁suck	-11101
▁bless	-11102
▁drone	-11103
▁fires	-11104
▁flint	-11105
▁panic	-11106
▁redes	-11107
▁twist	-11108
▁apolog	-11109
▁colony	-11110
▁curric	-11111
▁friday	-11112
▁packed	-11113
▁turkey	-11114
▁consent	-11115
▁offices	-11116
▁teenage	-11117
▁theoret	-11118
▁accuracy	-11119
▁activist	-11120
▁applying	-11121
▁division	-11122
▁vacation	-11123
▁correctly	-11124
▁challenged	-11125
▁mosquitoes	-11126
▁approximate	-11127
▁constraints	-11128
▁neuroscient	-11129
▁disabilities	-11130
▁observations	-11131
▁unbelievable	-11132
▁unprecedented	-11133
ịt	-11134
▁64	-11135
▁sb	-11136
▁tb	-11137
laim	-11138
▁bưc	-11139
▁bẩy	-11140
▁cad	-11141
▁lầy	-11142
▁vot	-11143
bbing	-11144
ctive	-11145
eller	-11146
ngine	-11147
▁bowl	-11148
▁depr	-11149
▁dich	-11150
▁epic	-11151
▁hiếu	-11152
▁hoăc	-11153
▁isis	-11154
▁ngơi	-11155
▁nhào	-11156
▁ross	-11157
▁thắp	-11158
▁tone	-11159
▁wrap	-11160
orters	-11161
▁comic	-11162
▁diego	-11163
▁crimes	-11164
▁funded	-11165
▁mozart	-11166
▁steven	-11167
▁violin	-11168
▁adapted	-11169
▁alexand	-11170
▁bedroom	-11171
▁cluster	-11172
▁flowing	-11173
▁mankind	-11174
▁minimum	-11175
▁startup	-11176
▁aircraft	-11177
▁genocide	-11178
▁informal	-11179
▁stopping	-11180
▁isolation	-11181
▁officials	-11182
▁renewable	-11183
▁candidates	-11184
▁impression	-11185
▁newspapers	-11186
▁vegetables	-11187
▁encouraging	-11188
▁expressions	-11189
▁institutional	-11190
rof	-11191
▁js	-11192
aped	-11193
pled	-11194
▁bug	-11195
▁gập	-11196
▁vẫy	-11197
▁đao	-11198
phere	-11199
▁1995	-11200
▁dent	-11201
▁huýt	-11202
▁nest	-11203
▁panc	-11204
▁pete	-11205
▁rats	-11206
▁rope	-11207
▁tedt	-11208
▁drown	-11209
▁leone	-11210
▁shirt	-11211
▁varia	-11212
inarily	-11213
▁foster	-11214
▁freely	-11215
▁kepler	-11216
▁luxury	-11217
▁norman	-11218
▁relief	-11219
▁soccer	-11220
▁strike	-11221
▁upside	-11222
▁consens	-11223
▁gardens	-11224
▁passage	-11225
▁pockets	-11226
▁sadness	-11227
▁selfish	-11228
▁shortly	-11229
▁snowden	-11230
▁venture	-11231
▁compound	-11232
▁contrary	-11233
▁customer	-11234
▁musician	-11235
▁randomly	-11236
▁abandoned	-11237
▁compounds	-11238
▁expecting	-11239
▁reproduce	-11240
▁somebodys	-11241
▁ecological	-11242
▁engineered	-11243
▁hemisphere	-11244
▁monitoring	-11245
▁approaching	-11246
▁schizophren	-11247
▁alternatives	-11248
▁gravitational	-11249
zi	-11250
õm	-11251
eff	-11252
lon	-11253
nhe	-11254
osc	-11255
▁41	-11256
▁97	-11257
▁bm	-11258
▁tk	-11259
oped	-11260
rane	-11261
uate	-11262
▁lít	-11263
▁lót	-11264
▁usd	-11265
▁vặn	-11266
▁ynh	-11267
ahalf	-11268
alous	-11269
leans	-11270
opath	-11271
▁1999	-11272
▁bite	-11273
▁chọi	-11274
▁germ	-11275
▁grat	-11276
▁rồng	-11277
▁subt	-11278
▁ward	-11279
▁ương	-11280
alysis	-11281
ective	-11282
▁agent	-11283
▁encry	-11284
▁fired	-11285
▁immun	-11286
▁liêng	-11287
▁pants	-11288
▁recre	-11289
▁repet	-11290
▁stays	-11291
▁enthus	-11292
▁lowest	-11293
▁upload	-11294
▁vancou	-11295
▁zimbab	-11296
quarters	-11297
ventions	-11298
▁assault	-11299
▁corrupt	-11300
▁montana	-11301
▁orleans	-11302
▁pursuit	-11303
▁titanic	-11304
▁wedding	-11305
▁circuits	-11306
▁fabulous	-11307
▁generous	-11308
▁openness	-11309
▁eliminate	-11310
▁magnitude	-11311
▁mainstream	-11312
▁architectural	-11313
▁straightforward	-11314
uch	-11315
▁53	-11316
▁74	-11317
▁cs	-11318
▁ig	-11319
erey	-11320
isol	-11321
quis	-11322
rant	-11323
tech	-11324
▁mol	-11325
▁súp	-11326
▁tie	-11327
▁đun	-11328
▁đóm	-11329
aware	-11330
ching	-11331
produ	-11332
thood	-11333
▁2020	-11334
▁belt	-11335
▁hăng	-11336
▁keys	-11337
▁lách	-11338
▁nurt	-11339
▁phàn	-11340
▁plug	-11341
▁stew	-11342
▁tatt	-11343
▁tuna	-11344
▁viêt	-11345
▁2000.	-11346
▁cairo	-11347
▁decor	-11348
▁entry	-11349
▁fraud	-11350
▁ineff	-11351
▁kings	-11352
▁kiêng	-11353
▁kosov	-11354
▁slave	-11355
ressing	-11356
▁dispar	-11357
▁enzyme	-11358
▁estate	-11359
▁guinea	-11360
▁headed	-11361
▁immers	-11362
▁kansas	-11363
▁passes	-11364
▁proved	-11365
▁ritual	-11366
▁subsah	-11367
▁sunday	-11368
▁vagina	-11369
gression	-11370
▁alabama	-11371
▁assumed	-11372
▁captain	-11373
▁default	-11374
▁harmony	-11375
▁correspo	-11376
▁jeopardy	-11377
▁magnific	-11378
▁monterey	-11379
▁morality	-11380
▁opinions	-11381
▁optimism	-11382
▁purposes	-11383
▁smallest	-11384
▁bacterial	-11385
▁recycling	-11386
▁responded	-11387
▁screaming	-11388
▁sensation	-11389
▁shortterm	-11390
▁strategic	-11391
▁continuing	-11392
▁expectancy	-11393
▁retirement	-11394
▁spacecraft	-11395
▁specialized	-11396
▁connectivity	-11397
fi	-11398
hai	-11399
kin	-11400
tha	-11401
▁68	-11402
▁82	-11403
▁dy	-11404
▁ow	-11405
▁tớ	-11406
ched	-11407
flix	-11408
list	-11409
onto	-11410
riet	-11411
▁kle	-11412
▁lhc	-11413
ceton	-11414
raine	-11415
▁atte	-11416
▁dave	-11417
▁forb	-11418
▁giup	-11419
▁inex	-11420
▁meme	-11421
▁nons	-11422
▁plas	-11423
▁rape	-11424
▁stir	-11425
▁sùng	-11426
▁thro	-11427
▁unle	-11428
▁chiêc	-11429
▁gamma	-11430
▁hight	-11431
▁lever	-11432
▁phiến	-11433
▁regul	-11434
▁simon	-11435
▁subur	-11436
▁teddy	-11437
▁vocal	-11438
▁errors	-11439
▁harbor	-11440
▁insane	-11441
▁orphan	-11442
▁pencil	-11443
▁revers	-11444
▁skelet	-11445
▁sketch	-11446
▁warren	-11447
▁anxious	-11448
▁beatbox	-11449
▁charged	-11450
▁handful	-11451
▁hopeful	-11452
▁inhabit	-11453
▁landing	-11454
▁mindful	-11455
▁outrage	-11456
▁portion	-11457
▁prisons	-11458
▁proceed	-11459
▁soldier	-11460
▁vietnam	-11461
▁wealthy	-11462
▁collagen	-11463
▁hercules	-11464
▁historic	-11465
▁interven	-11466
▁leverage	-11467
▁managers	-11468
▁synchron	-11469
▁triangle	-11470
▁worrying	-11471
▁acknowled	-11472
▁copyright	-11473
▁formation	-11474
▁paralyzed	-11475
▁princeton	-11476
▁regularly	-11477
▁vancouver	-11478
▁facilities	-11479
▁identities	-11480
▁microphone	-11481
▁variations	-11482
▁beautifully	-11483
▁emotionally	-11484
▁enforcement	-11485
▁partnership	-11486
▁decisionmaking	-11487
▁interconnected	-11488
▁interpretation	-11489
ẹt	-11490
ỉa	-11491
tan	-11492
tra	-11493
yon	-11494
▁kẽ	-11495
▁nạ	-11496
lesh	-11497
ties	-11498
xual	-11499
▁cub	-11500
▁cán	-11501
▁cồn	-11502
▁hẻo	-11503
▁nhơ	-11504
▁obt	-11505
▁oxi	-11506
▁rib	-11507
geria	-11508
inity	-11509
irect	-11510
press	-11511
▁2500	-11512
▁bert	-11513
▁chon	-11514
▁chốn	-11515
▁deaf	-11516
▁fits	-11517
▁flee	-11518
▁hect	-11519
▁ivan	-11520
▁lith	-11521
▁nhăn	-11522
▁offs	-11523
▁righ	-11524
▁scra	-11525
▁turk	-11526
astics	-11527
ussani	-11528
▁blink	-11529
▁cyrus	-11530
▁delay	-11531
▁escap	-11532
▁hated	-11533
▁kills	-11534
▁laden	-11535
▁paths	-11536
▁swing	-11537
ascular	-11538
looking	-11539
working	-11540
▁atomic	-11541
▁compre	-11542
▁habits	-11543
▁inevit	-11544
▁league	-11545
▁livest	-11546
▁mentor	-11547
▁oclock	-11548
▁slaves	-11549
▁slower	-11550
▁smells	-11551
▁beijing	-11552
▁enemies	-11553
▁follows	-11554
▁netflix	-11555
▁priorit	-11556
▁rituals	-11557
▁useless	-11558
▁actively	-11559
▁horizont	-11560
▁affecting	-11561
▁batteries	-11562
▁expressed	-11563
▁orchestra	-11564
▁succeeded	-11565
▁approached	-11566
▁protective	-11567
▁reflection	-11568
▁remarkably	-11569
▁computation	-11570
▁philosophers	-11571
▁photographed	-11572
▁psychologist	-11573
▁compassionate	-11574
tô	-11575
ux	-11576
50.	-11577
gon	-11578
ker	-11579
rot	-11580
tim	-11581
▁ớt	-11582
ails	-11583
alay	-11584
oric	-11585
wind	-11586
▁bến	-11587
▁câm	-11588
▁dồi	-11589
▁fou	-11590
▁jun	-11591
▁lee	-11592
▁nắp	-11593
▁trớ	-11594
▁đôn	-11595
icked	-11596
inent	-11597
inery	-11598
itzer	-11599
izers	-11600
oning	-11601
usive	-11602
▁8000	-11603
▁cage	-11604
▁coke	-11605
▁cuts	-11606
▁dirt	-11607
▁ebay	-11608
▁nhọn	-11609
▁niêm	-11610
▁quạt	-11611
▁shit	-11612
income	-11613
mental	-11614
thesia	-11615
▁15000	-11616
▁anten	-11617
▁cable	-11618
▁cared	-11619
▁grave	-11620
▁lifel	-11621
▁nanop	-11622
▁redef	-11623
▁shelf	-11624
▁suspe	-11625
▁venez	-11626
▁wires	-11627
▁comedy	-11628
▁hurric	-11629
▁kidney	-11630
▁recall	-11631
▁strict	-11632
▁carries	-11633
▁courses	-11634
▁injured	-11635
▁nearest	-11636
▁reaches	-11637
▁staring	-11638
▁supreme	-11639
▁activate	-11640
▁advocate	-11641
▁giussani	-11642
▁margaret	-11643
▁zimbabwe	-11644
▁extension	-11645
▁gentleman	-11646
▁passwords	-11647
▁reporting	-11648
forestation	-11649
▁subsaharan	-11650
▁demographic	-11651
▁remembering	-11652
awi	-11653
nat	-11654
rah	-11655
ượm	-11656
▁dỡ	-11657
velt	-11658
▁als	-11659
▁côi	-11660
▁hid	-11661
▁háo	-11662
▁lyn	-11663
▁nến	-11664
▁ric	-11665
acent	-11666
pring	-11667
▁1984	-11668
▁apps	-11669
▁ariz	-11670
▁bali	-11671
▁bàng	-11672
▁flaw	-11673
▁joel	-11674
▁kiềm	-11675
▁pear	-11676
▁rica	-11677
▁sole	-11678
▁thùy	-11679
▁trek	-11680
▁tưng	-11681
▁vest	-11682
coming	-11683
▁coinc	-11684
▁cream	-11685
▁fever	-11686
▁hired	-11687
▁holoc	-11688
▁larry	-11689
▁poems	-11690
▁pulls	-11691
▁rings	-11692
▁sweat	-11693
▁thuôc	-11694
▁archae	-11695
▁asleep	-11696
▁contra	-11697
▁criter	-11698
▁equals	-11699
▁fallen	-11700
▁nerves	-11701
▁norway	-11702
▁racism	-11703
▁sugars	-11704
▁tempor	-11705
▁analogy	-11706
▁crystal	-11707
▁enabled	-11708
▁footage	-11709
▁recruit	-11710
▁refused	-11711
▁tsunami	-11712
▁connects	-11713
▁endanger	-11714
▁incorpor	-11715
▁kindness	-11716
▁minority	-11717
▁outbreak	-11718
▁pointing	-11719
▁rejected	-11720
▁terribly	-11721
▁venezuel	-11722
▁authentic	-11723
▁collapsed	-11724
▁replicate	-11725
▁righthand	-11726
▁assistance	-11727
▁discipline	-11728
▁discovering	-11729
▁medications	-11730
nge	-11731
vio	-11732
▁gm	-11733
omed	-11734
step	-11735
▁186	-11736
▁cửu	-11737
▁huh	-11738
▁tụy	-11739
hamed	-11740
rical	-11741
umble	-11742
▁ngos	-11743
▁thoa	-11744
▁đọng	-11745
bility	-11746
▁bench	-11747
▁buddh	-11748
▁dough	-11749
▁ingen	-11750
▁miner	-11751
▁siber	-11752
▁sương	-11753
▁wheat	-11754
▁woods	-11755
▁zeros	-11756
ription	-11757
▁contam	-11758
▁galile	-11759
▁raises	-11760
▁starbu	-11761
▁subway	-11762
▁arguing	-11763
▁arizona	-11764
▁bridges	-11765
▁careers	-11766
▁demonst	-11767
▁doubled	-11768
▁engines	-11769
▁himalay	-11770
▁nucleus	-11771
▁swallow	-11772
▁travels	-11773
▁advances	-11774
▁cellular	-11775
▁climbing	-11776
▁consumed	-11777
▁cortisol	-11778
▁dreaming	-11779
▁plastics	-11780
▁skeleton	-11781
▁targeted	-11782
▁tropical	-11783
▁overnight	-11784
▁signature	-11785
▁temporary	-11786
▁curriculum	-11787
▁employment	-11788
▁immigrants	-11789
▁landscapes	-11790
▁manufactur	-11791
▁narratives	-11792
▁professors	-11793
▁trajectory	-11794
▁frightening	-11795
▁understands	-11796
py	-11797
een	-11798
jan	-11799
▁pc	-11800
▁tạ	-11801
▁vớ	-11802
aint	-11803
aken	-11804
bbed	-11805
etts	-11806
oven	-11807
pond	-11808
ules	-11809
▁125	-11810
▁140	-11811
▁187	-11812
▁21.	-11813
▁ads	-11814
▁jen	-11815
▁lưc	-11816
▁ngự	-11817
▁tua	-11818
▁usa	-11819
asive	-11820
ester	-11821
▁abed	-11822
▁blur	-11823
▁groc	-11824
▁khốn	-11825
▁sake	-11826
▁sher	-11827
▁thơm	-11828
▁torn	-11829
▁wore	-11830
inator	-11831
▁boats	-11832
▁boost	-11833
▁libya	-11834
▁matth	-11835
▁messy	-11836
▁milky	-11837
▁scand	-11838
▁shops	-11839
ativity	-11840
▁apples	-11841
▁barack	-11842
▁barrel	-11843
▁cultiv	-11844
▁korean	-11845
▁legend	-11846
▁motors	-11847
▁static	-11848
▁android	-11849
▁authors	-11850
▁clarity	-11851
▁clinics	-11852
▁despair	-11853
▁grocery	-11854
▁hacking	-11855
▁hawking	-11856
▁mapping	-11857
▁transit	-11858
▁drawings	-11859
▁findings	-11860
▁promised	-11861
▁selected	-11862
▁spelling	-11863
▁touching	-11864
▁websites	-11865
▁amazingly	-11866
▁augmented	-11867
▁consensus	-11868
▁desperate	-11869
▁inclusive	-11870
▁realistic	-11871
▁endangered	-11872
▁manipulate	-11873
▁organizing	-11874
▁magnificent	-11875
▁demonstration	-11876
▁xi	-11877
▁êm	-11878
mann	-11879
orus	-11880
▁30.	-11881
▁bưu	-11882
▁lãi	-11883
▁pad	-11884
▁tul	-11885
▁ôtô	-11886
▁đăc	-11887
enses	-11888
phony	-11889
terol	-11890
▁7000	-11891
▁adul	-11892
▁buồm	-11893
▁cows	-11894
▁gaza	-11895
▁moms	-11896
▁nich	-11897
▁nove	-11898
▁spec	-11899
▁stad	-11900
▁sửng	-11901
▁unst	-11902
▁đính	-11903
▁adren	-11904
▁beeth	-11905
▁bills	-11906
▁brows	-11907
▁caves	-11908
▁flick	-11909
▁gains	-11910
▁hoped	-11911
▁indus	-11912
▁jason	-11913
▁marks	-11914
▁nhược	-11915
▁pulse	-11916
▁revel	-11917
▁shine	-11918
▁steam	-11919
▁trips	-11920
faction	-11921
itative	-11922
perform	-11923
▁behalf	-11924
▁config	-11925
▁kosovo	-11926
▁orders	-11927
▁plasma	-11928
▁queens	-11929
▁riding	-11930
▁shower	-11931
▁tennes	-11932
▁venice	-11933
andahalf	-11934
▁package	-11935
▁puzzles	-11936
▁shorter	-11937
▁smiling	-11938
▁backyard	-11939
▁breeding	-11940
▁egyptian	-11941
▁evolving	-11942
▁hightech	-11943
▁officers	-11944
▁pandemic	-11945
▁sexually	-11946
▁substant	-11947
▁surgeons	-11948
▁tendency	-11949
▁transmit	-11950
▁airplanes	-11951
▁blindness	-11952
▁competing	-11953
▁distances	-11954
▁equations	-11955
▁jefferson	-11956
▁jellyfish	-11957
▁miserable	-11958
▁starbucks	-11959
▁territory	-11960
▁witnessed	-11961
▁astronomers	-11962
▁microscopic	-11963
▁contribution	-11964
▁historically	-11965
▁accountability	-11966
aba	-11967
gas	-11968
jud	-11969
lah	-11970
ếng	-11971
▁56	-11972
▁93	-11973
▁lp	-11974
▁rm	-11975
▁ấp	-11976
city	-11977
irts	-11978
rill	-11979
ytes	-11980
▁apr	-11981
▁bor	-11982
▁cằn	-11983
▁dun	-11984
▁méo	-11985
▁oak	-11986
▁pla	-11987
▁rải	-11988
▁tsh	-11989
▁ubi	-11990
achus	-11991
▁cành	-11992
▁khốc	-11993
▁lửng	-11994
▁nhấc	-11995
▁seal	-11996
▁seaw	-11997
▁trap	-11998
▁twin	-11999
idding	-12000
weight	-12001
▁2010.	-12002
▁belly	-12003
▁couch	-12004
▁drops	-12005
▁gotta	-12006
▁graff	-12007
▁impul	-12008
▁khùng	-12009
▁meets	-12010
▁minus	-12011
▁moore	-12012
▁pills	-12013
▁sauce	-12014
cussion	-12015
essions	-12016
itution	-12017
▁amazed	-12018
▁beaten	-12019
▁bhutan	-12020
▁cácbon	-12021
▁diving	-12022
▁donald	-12023
▁greece	-12024
▁helium	-12025
▁hypoth	-12026
▁immort	-12027
▁marrow	-12028
▁mining	-12029
▁purely	-12030
▁subsid	-12031
▁worthy	-12032
ogenesis	-12033
▁absence	-12034
▁farther	-12035
▁heading	-12036
▁laughed	-12037
▁monster	-12038
▁patrick	-12039
▁philipp	-12040
▁request	-12041
▁resolve	-12042
▁autonomy	-12043
▁catching	-12044
▁geometry	-12045
▁recycled	-12046
▁asteroids	-12047
▁screening	-12048
▁statistic	-12049
▁compromise	-12050
▁destroying	-12051
▁infectious	-12052
▁preventing	-12053
▁investigate	-12054
▁investments	-12055
▁michelangel	-12056
▁communicating	-12057
15	-12058
hu	-12059
▁ờ	-12060
bye	-12061
eem	-12062
gal	-12063
hal	-12064
hic	-12065
aves	-12066
conf	-12067
iots	-12068
olar	-12069
olen	-12070
▁1.3	-12071
▁báu	-12072
▁hức	-12073
▁mỉa	-12074
▁reo	-12075
▁tụt	-12076
▁vỉa	-12077
▁bung	-12078
▁bust	-12079
▁chef	-12080
▁demo	-12081
▁dose	-12082
▁ngủi	-12083
▁phớt	-12084
▁pond	-12085
▁tact	-12086
▁watt	-12087
abling	-12088
elines	-12089
usions	-12090
▁ambig	-12091
▁chưng	-12092
▁depos	-12093
▁giếng	-12094
▁joint	-12095
▁manus	-12096
▁mobil	-12097
▁moses	-12098
▁phoen	-12099
▁resem	-12100
▁sizes	-12101
▁taxes	-12102
▁tuyêt	-12103
idering	-12104
imeters	-12105
▁aggreg	-12106
▁brands	-12107
▁builds	-12108
▁choles	-12109
▁norden	-12110
▁photon	-12111
▁stolen	-12112
standing	-12113
▁commons	-12114
▁dolphin	-12115
▁enjoyed	-12116
▁jupiter	-12117
▁origins	-12118
▁passive	-12119
▁printer	-12120
▁rethink	-12121
▁scanner	-12122
▁stewart	-12123
▁cartoons	-12124
▁champion	-12125
▁criteria	-12126
▁dinosaur	-12127
▁expanded	-12128
▁portrait	-12129
▁prospect	-12130
▁attitudes	-12131
▁biologist	-12132
▁caribbean	-12133
▁displaced	-12134
▁planetary	-12135
▁realities	-12136
▁sexuality	-12137
▁correspond	-12138
▁sufficient	-12139
▁yourselves	-12140
▁cholesterol	-12141
▁considering	-12142
▁distinguish	-12143
▁neanderthal	-12144
▁recognizing	-12145
▁presidential	-12146
▁computational	-12147
40	-12148
fa	-12149
ran	-12150
▁fm	-12151
▁sr	-12152
▁vã	-12153
▁ỏi	-12154
fire	-12155
play	-12156
▁185	-12157
▁aer	-12158
▁căm	-12159
▁cẩu	-12160
▁loy	-12161
▁lội	-12162
▁mọt	-12163
▁tít	-12164
▁đạm	-12165
▁bass	-12166
▁bing	-12167
▁gear	-12168
▁gram	-12169
▁indo	-12170
▁lamp	-12171
▁lanh	-12172
▁lượm	-12173
▁rabb	-12174
▁thoả	-12175
gender	-12176
urable	-12177
▁facil	-12178
▁fatal	-12179
▁flesh	-12180
▁laure	-12181
▁lewis	-12182
▁loans	-12183
▁loose	-12184
▁myths	-12185
▁namib	-12186
▁patri	-12187
▁penic	-12188
▁revol	-12189
▁roose	-12190
▁stair	-12191
▁tubes	-12192
ructive	-12193
▁analyt	-12194
▁biases	-12195
▁correl	-12196
▁cousin	-12197
▁guards	-12198
▁khuếch	-12199
▁manual	-12200
▁metric	-12201
▁philip	-12202
▁preval	-12203
▁refuse	-12204
▁retail	-12205
▁adrenal	-12206
▁corners	-12207
▁jealous	-12208
▁museums	-12209
▁retreat	-12210
▁unhappy	-12211
▁attacked	-12212
▁attempts	-12213
▁colombia	-12214
▁columbus	-12215
▁ideology	-12216
▁shipping	-12217
▁criminals	-12218
▁intensity	-12219
▁machinery	-12220
▁promising	-12221
▁tennessee	-12222
▁therapies	-12223
▁basketball	-12224
▁catastroph	-12225
▁journalism	-12226
▁practicing	-12227
▁sanitation	-12228
▁approximately	-12229
▁controversial	-12230
▁deforestation	-12231
àm	-12232
mia	-12233
▁78	-12234
▁hở	-12235
▁jr	-12236
agra	-12237
cost	-12238
five	-12239
ugal	-12240
▁ail	-12241
▁coh	-12242
▁lap	-12243
▁lem	-12244
▁mặn	-12245
▁mỉm	-12246
▁pow	-12247
▁beep	-12248
▁bugs	-12249
▁chop	-12250
▁dean	-12251
▁deck	-12252
▁nhức	-12253
▁sadd	-12254
▁sexy	-12255
▁solo	-12256
▁urge	-12257
urning	-12258
▁chase	-12259
▁gorge	-12260
▁khiết	-12261
▁param	-12262
▁phách	-12263
▁selfd	-12264
▁shang	-12265
▁aliens	-12266
▁allies	-12267
▁covers	-12268
▁curves	-12269
▁cycles	-12270
▁hunter	-12271
▁magnet	-12272
▁occupy	-12273
▁posted	-12274
▁stabil	-12275
▁truths	-12276
▁waited	-12277
▁banking	-12278
▁chamber	-12279
▁cousins	-12280
▁crossed	-12281
▁locally	-12282
▁reserve	-12283
▁shifted	-12284
▁whistle	-12285
▁accompan	-12286
▁admitted	-12287
▁approved	-12288
▁cocktail	-12289
▁colonies	-12290
▁colorado	-12291
▁democrat	-12292
▁explored	-12293
▁graffiti	-12294
▁pathways	-12295
▁stressed	-12296
▁abundance	-12297
▁contained	-12298
▁delicious	-12299
▁dominated	-12300
▁holocaust	-12301
▁integrate	-12302
▁massachus	-12303
▁alexandria	-12304
▁manuscript	-12305
▁restaurants	-12306
awa	-12307
mun	-12308
urd	-12309
zes	-12310
▁39	-12311
▁84	-12312
▁az	-12313
▁dp	-12314
chel	-12315
mind	-12316
pack	-12317
plus	-12318
▁50.	-12319
▁cod	-12320
▁lậu	-12321
▁nas	-12322
▁naz	-12323
▁ren	-12324
▁tuý	-12325
▁vẩn	-12326
▁zam	-12327
▁đom	-12328
arded	-12329
found	-12330
illin	-12331
ogens	-12332
▁1600	-12333
▁1989	-12334
▁bach	-12335
▁bald	-12336
▁chât	-12337
▁chốc	-12338
▁ence	-12339
▁entr	-12340
▁giưa	-12341
▁mens	-12342
▁rong	-12343
▁stun	-12344
▁tune	-12345
apagos	-12346
erving	-12347
istine	-12348
itated	-12349
lihood	-12350
racies	-12351
rolled	-12352
vasive	-12353
violet	-12354
▁acids	-12355
▁alert	-12356
▁artic	-12357
▁delic	-12358
▁homet	-12359
▁infer	-12360
▁jewel	-12361
▁lanes	-12362
▁miami	-12363
▁neutr	-12364
▁perip	-12365
▁slice	-12366
itivity	-12367
▁canopy	-12368
▁canyon	-12369
▁carpet	-12370
▁cookie	-12371
▁denial	-12372
▁ethnic	-12373
▁nightm	-12374
▁orwell	-12375
▁specul	-12376
▁cardiac	-12377
▁deepest	-12378
▁destiny	-12379
▁ethanol	-12380
▁onstage	-12381
▁pronoun	-12382
▁returns	-12383
▁simpler	-12384
▁teaches	-12385
▁asteroid	-12386
▁countrys	-12387
▁estrogen	-12388
▁explicit	-12389
▁headline	-12390
▁helpless	-12391
▁keyboard	-12392
▁november	-12393
▁underest	-12394
▁galapagos	-12395
▁phenomena	-12396
▁transcend	-12397
▁undergrad	-12398
▁classrooms	-12399
▁determines	-12400
▁helicopter	-12401
▁foundations	-12402
▁legislation	-12403
▁ultraviolet	-12404
▁civilizations	-12405
cha	-12406
cip	-12407
nut	-12408
oir	-12409
oly	-12410
pox	-12411
▁8.	-12412
▁cộ	-12413
etta	-12414
loid	-12415
rect	-12416
▁bip	-12417
▁chư	-12418
▁gro	-12419
▁hir	-12420
▁isa	-12421
▁sói	-12422
▁trá	-12423
▁xáo	-12424
asses	-12425
▁anth	-12426
▁delt	-12427
▁duty	-12428
▁lich	-12429
▁oreg	-12430
▁spat	-12431
▁sylv	-12432
▁tedx	-12433
▁thốn	-12434
▁trói	-12435
▁uran	-12436
▁vice	-12437
▁wins	-12438
acious	-12439
▁2008.	-12440
▁align	-12441
▁artif	-12442
▁babys	-12443
▁candy	-12444
▁entit	-12445
▁grasp	-12446
▁grief	-12447
▁illum	-12448
▁immig	-12449
▁johns	-12450
▁knees	-12451
▁meals	-12452
▁offsh	-12453
▁patch	-12454
▁penet	-12455
▁robin	-12456
▁skype	-12457
▁thiếp	-12458
▁vivid	-12459
roverts	-12460
uration	-12461
▁advers	-12462
▁counts	-12463
▁cracks	-12464
▁elabor	-12465
▁hambur	-12466
▁larges	-12467
▁nether	-12468
▁reserv	-12469
▁stigma	-12470
▁100.000	-12471
▁affairs	-12472
▁alright	-12473
▁belongs	-12474
▁galileo	-12475
▁halfway	-12476
▁phoenix	-12477
▁planned	-12478
▁sneaker	-12479
▁stadium	-12480
▁strings	-12481
▁toronto	-12482
▁trivial	-12483
▁yearold	-12484
▁activism	-12485
▁assembly	-12486
▁dropping	-12487
▁famously	-12488
▁hometown	-12489
▁prosecut	-12490
▁prostate	-12491
▁saturday	-12492
▁simplest	-12493
▁visiting	-12494
▁associate	-12495
▁describes	-12496
▁incentive	-12497
▁inflation	-12498
▁offspring	-12499
▁passenger	-12500
▁inevitably	-12501
▁interviews	-12502
▁likelihood	-12503
▁nonviolent	-12504
▁separation	-12505
▁democracies	-12506
▁discussions	-12507
▁distinction	-12508
▁immigration	-12509
▁politically	-12510
▁transgender	-12511
▁introduction	-12512
▁extraordinarily	-12513
alt	-12514
ano	-12515
nie	-12516
ềng	-12517
▁58	-12518
▁dh	-12519
▁sò	-12520
acts	-12521
asha	-12522
bury	-12523
cycl	-12524
idal	-12525
iner	-12526
rans	-12527
vere	-12528
▁dum	-12529
▁dào	-12530
▁gục	-12531
▁hân	-12532
▁lụt	-12533
▁nôn	-12534
▁por	-12535
▁rip	-12536
▁shy	-12537
▁ski	-12538
osity	-12539
ribed	-12540
▁100.	-12541
▁anna	-12542
▁ardu	-12543
▁báng	-12544
▁chạp	-12545
▁cuôi	-12546
▁fans	-12547
▁impr	-12548
▁junk	-12549
▁oecd	-12550
▁thẹn	-12551
▁util	-12552
▁xuât	-12553
gments	-12554
inates	-12555
otechn	-12556
▁april	-12557
▁deter	-12558
▁erect	-12559
▁fifty	-12560
▁giềng	-12561
▁gross	-12562
▁hills	-12563
▁maria	-12564
▁marij	-12565
▁mimic	-12566
▁oklah	-12567
▁outdo	-12568
▁phant	-12569
▁phiện	-12570
▁swiss	-12571
▁texts	-12572
▁twoth	-12573
▁absurd	-12574
▁cambod	-12575
▁canvas	-12576
▁chuồng	-12577
▁earned	-12578
▁equity	-12579
▁europa	-12580
▁handed	-12581
▁horror	-12582
▁latinh	-12583
▁oregon	-12584
▁prepar	-12585
▁selves	-12586
▁serves	-12587
▁steady	-12588
▁voters	-12589
▁ecology	-12590
▁episode	-12591
▁fluores	-12592
▁harriet	-12593
▁jumping	-12594
▁ubiquit	-12595
▁detector	-12596
▁predator	-12597
▁publicly	-12598
▁seawater	-12599
▁attracted	-12600
▁beethoven	-12601
▁geography	-12602
▁intensive	-12603
▁resilient	-12604
▁resistant	-12605
▁sequences	-12606
▁visualize	-12607
▁astronauts	-12608
▁delivering	-12609
▁elementary	-12610
▁expedition	-12611
▁generating	-12612
▁legitimate	-12613
▁regulation	-12614
▁composition	-12615
▁consciously	-12616
▁proposition	-12617
▁massachusetts	-12618
cin	-12619
rat	-12620
yte	-12621
zee	-12622
▁bì	-12623
▁đc	-12624
agan	-12625
olis	-12626
▁jur	-12627
▁ria	-12628
▁tac	-12629
▁tib	-12630
▁xâu	-12631
▁ôxy	-12632
ifies	-12633
impse	-12634
lemma	-12635
ourse	-12636
storm	-12637
▁cher	-12638
▁dial	-12639
▁duck	-12640
▁glow	-12641
▁odor	-12642
▁rays	-12643
▁scal	-12644
arians	-12645
comput	-12646
estion	-12647
hammad	-12648
▁drunk	-12649
▁freud	-12650
▁lingu	-12651
▁nodes	-12652
▁norms	-12653
▁sheer	-12654
▁twins	-12655
attered	-12656
▁150000	-12657
▁choàng	-12658
▁lester	-12659
▁losses	-12660
▁namely	-12661
▁nghiêp	-12662
▁spends	-12663
▁applies	-12664
▁artwork	-12665
▁coastal	-12666
▁dilemma	-12667
▁divorce	-12668
▁glimpse	-12669
▁goodbye	-12670
▁greatly	-12671
▁mirrors	-12672
▁namibia	-12673
▁neutron	-12674
▁optical	-12675
▁trusted	-12676
▁catholic	-12677
▁contempl	-12678
▁defining	-12679
▁hopeless	-12680
▁interior	-12681
▁managing	-12682
▁marginal	-12683
▁multiply	-12684
▁oklahoma	-12685
▁siblings	-12686
▁champions	-12687
▁cooperate	-12688
▁platforms	-12689
▁reasoning	-12690
▁receptors	-12691
▁roosevelt	-12692
▁twothirds	-12693
▁accelerate	-12694
▁chimpanzee	-12695
▁largescale	-12696
▁penicillin	-12697
▁subjective	-12698
▁ubiquitous	-12699
▁encountered	-12700
▁netherlands	-12701
▁overwhelmed	-12702
▁supermarket	-12703
▁demonstrated	-12704
▁perspectives	-12705
▁revolutionary	-12706
▁representative	-12707
ii	-12708
nb	-12709
lla	-12710
uba	-12711
▁57	-12712
▁hp	-12713
▁mg	-12714
bris	-12715
eman	-12716
ergy	-12717
pace	-12718
rain	-12719
▁99.	-12720
▁bil	-12721
▁gel	-12722
▁gào	-12723
▁gạo	-12724
▁hij	-12725
▁khử	-12726
▁lip	-12727
▁lol	-12728
▁mài	-12729
▁nấc	-12730
▁phd	-12731
▁syd	-12732
▁tuỳ	-12733
alend	-12734
omics	-12735
oured	-12736
ouses	-12737
rated	-12738
▁1920	-12739
▁bion	-12740
▁cưng	-12741
▁ende	-12742
▁lawn	-12743
▁lump	-12744
▁medi	-12745
▁ngọc	-12746
▁nuts	-12747
▁obsc	-12748
▁quấn	-12749
▁rụng	-12750
▁ties	-12751
▁welf	-12752
▁yoga	-12753
culiar	-12754
strong	-12755
▁advis	-12756
▁awake	-12757
▁brush	-12758
▁bucks	-12759
▁buses	-12760
▁deals	-12761
▁dimin	-12762
▁inhib	-12763
▁keith	-12764
▁linux	-12765
▁lonel	-12766
▁paulo	-12767
▁slums	-12768
▁stare	-12769
▁towns	-12770
▁bosnia	-12771
▁carneg	-12772
▁cataly	-12773
▁courts	-12774
▁empath	-12775
▁joshua	-12776
▁tennis	-12777
▁topics	-12778
▁appoint	-12779
▁charges	-12780
▁committ	-12781
▁enhance	-12782
▁exhibit	-12783
▁exploit	-12784
▁wrapped	-12785
▁annivers	-12786
▁assigned	-12787
▁electrom	-12788
▁humility	-12789
▁muhammad	-12790
▁peculiar	-12791
▁redesign	-12792
▁smallpox	-12793
▁imagining	-12794
▁installed	-12795
▁marijuana	-12796
▁migration	-12797
▁parenting	-12798
▁recession	-12799
▁reflected	-12800
▁returning	-12801
▁shoulders	-12802
▁struggles	-12803
▁tolerance	-12804
▁venezuela	-12805
▁convenient	-12806
▁empowering	-12807
▁publishing	-12808
▁collaborate	-12809
▁destination	-12810
▁practically	-12811
▁predictable	-12812
▁michelangelo	-12813
▁satisfaction	-12814
bus	-12815
ffe	-12816
oko	-12817
xon	-12818
▁rg	-12819
oust	-12820
rina	-12821
▁119	-12822
▁160	-12823
▁ego	-12824
▁gee	-12825
▁nực	-12826
▁spo	-12827
▁vầy	-12828
▁xoa	-12829
▁xốp	-12830
agram	-12831
chúng	-12832
pread	-12833
rared	-12834
▁blew	-12835
▁carp	-12836
▁dall	-12837
▁epip	-12838
▁frog	-12839
▁họng	-12840
▁jama	-12841
▁ngào	-12842
▁nhai	-12843
▁porn	-12844
▁sput	-12845
▁troy	-12846
▁tưới	-12847
▁tụng	-12848
vation	-12849
▁allen	-12850
▁baker	-12851
▁careg	-12852
▁carri	-12853
▁embod	-12854
▁fails	-12855
▁flags	-12856
▁khiên	-12857
▁limbs	-12858
▁loads	-12859
▁plank	-12860
▁posed	-12861
▁raped	-12862
▁spite	-12863
▁voted	-12864
▁wides	-12865
ogether	-12866
▁addict	-12867
▁confer	-12868
▁encycl	-12869
▁improv	-12870
▁intact	-12871
▁johnny	-12872
▁jungle	-12873
▁metaph	-12874
▁prejud	-12875
▁sought	-12876
▁turing	-12877
▁urgent	-12878
▁viewed	-12879
▁fulfill	-12880
▁glacier	-12881
▁heavily	-12882
▁leather	-12883
▁maximum	-12884
▁phantom	-12885
▁placebo	-12886
▁planted	-12887
▁victory	-12888
▁welfare	-12889
▁whisper	-12890
▁jonathan	-12891
▁literacy	-12892
▁mentally	-12893
▁mutation	-12894
▁resident	-12895
▁singular	-12896
▁williams	-12897
▁aesthetic	-12898
▁parkinson	-12899
▁skeptical	-12900
▁accurately	-12901
▁celebrated	-12902
▁powerpoint	-12903
▁accountable	-12904
▁electromagn	-12905
▁perceptions	-12906
▁technically	-12907
▁philanthropy	-12908
sm	-12909
cup	-12910
irl	-12911
▁67	-12912
▁pi	-12913
▁tẻ	-12914
isan	-12915
isha	-12916
itia	-12917
oned	-12918
teen	-12919
▁adh	-12920
▁arn	-12921
▁awe	-12922
▁cpu	-12923
▁cyl	-12924
▁dyl	-12925
▁hêt	-12926
▁kam	-12927
▁lùn	-12928
▁lọt	-12929
▁mác	-12930
▁nếm	-12931
▁xấp	-12932
inger	-12933
▁1996	-12934
▁andy	-12935
▁bent	-12936
▁chíp	-12937
▁cube	-12938
▁diều	-12939
▁edin	-12940
▁nang	-12941
▁neoc	-12942
▁nhát	-12943
▁rect	-12944
▁trơn	-12945
▁vựng	-12946
timore	-12947
umines	-12948
▁buông	-12949
▁delta	-12950
▁donor	-12951
▁ghost	-12952
▁insec	-12953
▁jerry	-12954
▁maker	-12955
▁remix	-12956
▁resur	-12957
▁roger	-12958
▁thuât	-12959
▁tiger	-12960
▁tract	-12961
▁trait	-12962
▁triên	-12963
▁veloc	-12964
ilation	-12965
▁appeal	-12966
▁bonobo	-12967
▁calend	-12968
▁copies	-12969
▁cosmos	-12970
▁horses	-12971
▁humble	-12972
▁mutual	-12973
▁nguyệt	-12974
▁noneth	-12975
▁preach	-12976
▁priest	-12977
▁racial	-12978
▁reader	-12979
▁shifts	-12980
▁stairs	-12981
▁summit	-12982
▁sydney	-12983
▁thirty	-12984
▁waking	-12985
▁wheels	-12986
▁editors	-12987
▁patents	-12988
▁shining	-12989
▁uncover	-12990
▁undergo	-12991
▁assuming	-12992
▁canadian	-12993
▁carnegie	-12994
▁gorgeous	-12995
▁infrared	-12996
▁membrane	-12997
▁misunder	-12998
▁priority	-12999
▁switched	-13000
▁weakness	-13001
▁disasters	-13002
▁glamorous	-13003
▁occurring	-13004
▁secretary	-13005
▁electrodes	-13006
▁inherently	-13007
▁repeatedly	-13008
▁widespread	-13009
▁documentary	-13010
▁instruction	-13011
▁regulations	-13012
▁continuously	-13013
▁investigation	-13014
▁schizophrenia	-13015
fin	-13016
nas	-13017
ois	-13018
psy	-13019
ugg	-13020
▁dj	-13021
▁mm	-13022
▁sd	-13023
▁xì	-13024
brid	-13025
hydr	-13026
mate	-13027
▁13.	-13028
▁arc	-13029
▁cạo	-13030
▁kal	-13031
▁lạy	-13032
▁muc	-13033
▁ott	-13034
▁quạ	-13035
▁rậm	-13036
▁sha	-13037
▁sấu	-13038
▁tox	-13039
▁tub	-13040
assem	-13041
crast	-13042
ernic	-13043
ibati	-13044
piece	-13045
▁2017	-13046
▁cern	-13047
▁coch	-13048
▁cycl	-13049
▁jaws	-13050
▁khứu	-13051
▁quầy	-13052
▁sars	-13053
▁unre	-13054
▁whod	-13055
advant	-13056
ifting	-13057
iously	-13058
uction	-13059
▁bruce	-13060
▁clues	-13061
▁crypt	-13062
▁danny	-13063
▁feeds	-13064
▁probe	-13065
▁proto	-13066
▁spher	-13067
▁votes	-13068
▁casual	-13069
▁copper	-13070
▁donors	-13071
▁export	-13072
▁heroin	-13073
▁insert	-13074
▁insist	-13075
▁judges	-13076
▁parach	-13077
▁retina	-13078
▁tribal	-13079
▁turbul	-13080
▁viking	-13081
▁wishes	-13082
▁womans	-13083
▁archive	-13084
▁blowing	-13085
▁dismiss	-13086
▁elegant	-13087
▁happily	-13088
▁katrina	-13089
▁polymer	-13090
▁recycle	-13091
▁sapiens	-13092
▁skilled	-13093
▁toilets	-13094
▁whoever	-13095
▁ambition	-13096
▁diameter	-13097
▁graphics	-13098
▁indicate	-13099
▁kiribati	-13100
▁numerous	-13101
▁orbiting	-13102
▁parasite	-13103
▁thrilled	-13104
▁analyzing	-13105
▁automated	-13106
▁collision	-13107
▁confusion	-13108
▁disadvant	-13109
▁edinburgh	-13110
▁embracing	-13111
▁hierarchy	-13112
▁releasing	-13113
otechnology	-13114
▁acceptable	-13115
▁anticipate	-13116
▁assignment	-13117
▁confronted	-13118
▁continents	-13119
▁documented	-13120
▁loneliness	-13121
▁phosphorus	-13122
▁anniversary	-13123
▁corporation	-13124
▁nonetheless	-13125
▁calculations	-13126
▁chemotherapy	-13127
▁concentrated	-13128
▁interventions	-13129
kel	-13130
opl	-13131
urt	-13132
ươu	-13133
▁tm	-13134
▁xê	-13135
edge	-13136
olas	-13137
omic	-13138
▁cúi	-13139
▁hâu	-13140
▁jay	-13141
▁lev	-13142
▁lưa	-13143
▁ngơ	-13144
▁sôc	-13145
▁sưc	-13146
▁zen	-13147
▁đắc	-13148
▁đắp	-13149
apped	-13150
arted	-13151
ladus	-13152
▁beam	-13153
▁ceos	-13154
▁conj	-13155
▁curt	-13156
▁dare	-13157
▁fier	-13158
▁hoat	-13159
▁nitơ	-13160
▁phốt	-13161
▁sảnh	-13162
▁thuỷ	-13163
geries	-13164
insons	-13165
onalds	-13166
▁boots	-13167
▁comet	-13168
▁khiếu	-13169
▁moons	-13170
▁snake	-13171
▁straw	-13172
▁usage	-13173
theless	-13174
▁bitter	-13175
▁brutal	-13176
▁dallas	-13177
▁hippoc	-13178
▁legisl	-13179
▁masses	-13180
▁metrop	-13181
▁sheets	-13182
▁statue	-13183
▁storms	-13184
▁sylvia	-13185
▁wasted	-13186
▁winner	-13187
ifically	-13188
▁dancers	-13189
▁decides	-13190
▁desires	-13191
▁filling	-13192
▁labeled	-13193
▁narciss	-13194
▁neglect	-13195
▁rewards	-13196
▁siberia	-13197
▁strikes	-13198
▁torture	-13199
thcentury	-13200
▁announce	-13201
▁husbands	-13202
▁offshore	-13203
▁protests	-13204
▁symphony	-13205
▁achieving	-13206
▁answering	-13207
▁baltimore	-13208
▁biosphere	-13209
▁converted	-13210
▁enceladus	-13211
▁hurricane	-13212
▁livestock	-13213
▁mcdonalds	-13214
▁observing	-13215
▁paralysis	-13216
▁calculated	-13217
▁convincing	-13218
▁discussing	-13219
▁friendship	-13220
▁illustrate	-13221
▁programmed	-13222
▁improvements	-13223
▁nevertheless	-13224
▁characteristic	-13225
__	-13226
cca	-13227
môn	-13228
▁66	-13229
▁ay	-13230
▁cớ	-13231
▁ắc	-13232
abad	-13233
erom	-13234
fare	-13235
oker	-13236
▁12.	-13237
▁360	-13238
▁kah	-13239
▁sẹo	-13240
▁tản	-13241
▁đât	-13242
atoes	-13243
avors	-13244
gence	-13245
ormal	-13246
▁euro	-13247
▁mixt	-13248
▁mánh	-13249
▁ngai	-13250
▁ngạo	-13251
▁seaf	-13252
▁tale	-13253
▁todd	-13254
▁toll	-13255
▁upst	-13256
▁wage	-13257
▁worm	-13258
▁đưng	-13259
ergart	-13260
minute	-13261
▁arbit	-13262
▁bever	-13263
▁chích	-13264
▁float	-13265
▁fungi	-13266
▁kelly	-13267
▁nasty	-13268
▁nguội	-13269
▁obese	-13270
▁rampd	-13271
▁reass	-13272
▁scann	-13273
▁spagh	-13274
▁spill	-13275
▁sweep	-13276
▁vướng	-13277
ference	-13278
ounding	-13279
▁airbnb	-13280
▁evapor	-13281
▁exotic	-13282
▁frames	-13283
▁grades	-13284
▁knight	-13285
▁miguel	-13286
▁pherom	-13287
▁presum	-13288
▁tables	-13289
▁troops	-13290
▁viewer	-13291
▁wheres	-13292
function	-13293
▁babylon	-13294
▁fantasy	-13295
▁futures	-13296
▁inmates	-13297
▁liberty	-13298
▁pathway	-13299
▁reclaim	-13300
▁sectors	-13301
▁settled	-13302
▁stagger	-13303
▁superst	-13304
▁copernic	-13305
▁declared	-13306
▁fulltime	-13307
▁maryland	-13308
▁overhead	-13309
▁relation	-13310
▁shanghai	-13311
▁stepping	-13312
▁talented	-13313
▁veterans	-13314
▁belonging	-13315
▁hippocamp	-13316
▁respected	-13317
▁secondary	-13318
▁struggled	-13319
▁acceptance	-13320
▁altogether	-13321
▁automobile	-13322
▁differenti	-13323
▁parkinsons	-13324
▁unintended	-13325
▁preparation	-13326
▁realization	-13327
▁contributing	-13328
▁prescription	-13329
▁reproductive	-13330
▁significance	-13331
ni	-13332
ava	-13333
bin	-13334
hah	-13335
lli	-13336
ệch	-13337
▁ja	-13338
▁kỵ	-13339
inda	-13340
iond	-13341
stru	-13342
umph	-13343
▁450	-13344
▁bịt	-13345
▁câp	-13346
▁hou	-13347
▁kép	-13348
▁rus	-13349
▁sụt	-13350
▁thy	-13351
▁vưc	-13352
▁woo	-13353
▁xảo	-13354
▁zoo	-13355
▁đăt	-13356
▁đặn	-13357
eling	-13358
uddin	-13359
ymmet	-13360
▁1200	-13361
▁alar	-13362
▁barb	-13363
▁coat	-13364
▁denn	-13365
▁ethn	-13366
▁lane	-13367
▁milo	-13368
▁pose	-13369
▁shoe	-13370
▁spac	-13371
▁stam	-13372
▁amate	-13373
▁asset	-13374
▁blogs	-13375
▁bloom	-13376
▁codes	-13377
▁dylan	-13378
▁haunt	-13379
▁melan	-13380
▁oppon	-13381
▁ozone	-13382
▁qaeda	-13383
▁strat	-13384
▁susan	-13385
▁tibet	-13386
▁worms	-13387
▁wrist	-13388
powered	-13389
▁acoust	-13390
▁arabia	-13391
▁argued	-13392
▁divine	-13393
▁ethics	-13394
▁flavor	-13395
▁fluctu	-13396
▁futura	-13397
▁iconic	-13398
▁malawi	-13399
▁marked	-13400
▁marker	-13401
▁modest	-13402
▁morgan	-13403
▁summar	-13404
▁timing	-13405
▁tomato	-13406
▁towers	-13407
▁ultras	-13408
breaking	-13409
▁buttons	-13410
▁contest	-13411
▁genomes	-13412
▁microbi	-13413
▁sputnik	-13414
▁telecom	-13415
▁tunisia	-13416
▁uranium	-13417
▁composed	-13418
▁injuries	-13419
▁princess	-13420
▁realtime	-13421
▁comparing	-13422
▁convicted	-13423
▁fisheries	-13424
▁involving	-13425
▁mysteries	-13426
▁principal	-13427
▁suspended	-13428
▁worldview	-13429
▁kindergart	-13430
▁prosthetic	-13431
▁chromosomes	-13432
▁efficiently	-13433
▁integration	-13434
▁accomplished	-13435
▁embarrassing	-13436
▁representing	-13437
▁transforming	-13438
▁philosophical	-13439
▁transformative	-13440
99	-13441
ía	-13442
ũa	-13443
irm	-13444
tod	-13445
wal	-13446
ôla	-13447
eryl	-13448
▁ark	-13449
▁cum	-13450
▁plu	-13451
▁quo	-13452
▁rou	-13453
▁rud	-13454
▁sút	-13455
▁sập	-13456
▁tát	-13457
▁đậy	-13458
aurus	-13459
ortex	-13460
▁font	-13461
▁moma	-13462
▁offe	-13463
▁sham	-13464
▁stum	-13465
▁sưởi	-13466
▁tiệt	-13467
▁trỗi	-13468
asting	-13469
▁12000	-13470
▁acute	-13471
▁cares	-13472
▁heter	-13473
▁incom	-13474
▁phanh	-13475
▁rigid	-13476
abulary	-13477
atories	-13478
iscover	-13479
▁400000	-13480
▁beetle	-13481
▁cement	-13482
▁makeup	-13483
▁monday	-13484
▁nicole	-13485
▁pestic	-13486
▁potent	-13487
▁preced	-13488
▁samuel	-13489
▁sooner	-13490
▁speeds	-13491
▁throat	-13492
▁underm	-13493
▁walker	-13494
▁warmer	-13495
▁wooden	-13496
▁broader	-13497
▁catalog	-13498
▁creator	-13499
▁earning	-13500
▁genital	-13501
▁gesture	-13502
▁lithium	-13503
▁romance	-13504
▁tedtalk	-13505
▁trading	-13506
▁triumph	-13507
▁visions	-13508
▁acquired	-13509
▁checking	-13510
▁clusters	-13511
▁deciding	-13512
▁employee	-13513
▁festival	-13514
▁goodness	-13515
▁inventor	-13516
▁jennifer	-13517
▁modified	-13518
▁mushroom	-13519
▁pleasant	-13520
▁prisoner	-13521
▁proposal	-13522
▁reflects	-13523
▁supports	-13524
▁thinkers	-13525
▁youngest	-13526
▁activated	-13527
▁connectic	-13528
▁discussed	-13529
▁stressful	-13530
▁surgeries	-13531
▁antibiotic	-13532
▁relativity	-13533
▁preferences	-13534
▁researching	-13535
▁unfortunate	-13536
▁scientifically	-13537
cam	-13538
izz	-13539
zzy	-13540
▁88	-13541
▁gw	-13542
▁wk	-13543
▁xẻ	-13544
anas	-13545
pted	-13546
uced	-13547
uras	-13548
▁abu	-13549
▁bri	-13550
▁caf	-13551
▁cmu	-13552
▁cul	-13553
▁esp	-13554
▁gán	-13555
▁gầy	-13556
▁kền	-13557
▁nod	-13558
▁nín	-13559
▁nới	-13560
▁tột	-13561
▁wre	-13562
allet	-13563
arity	-13564
evity	-13565
scale	-13566
▁biol	-13567
▁chui	-13568
▁fees	-13569
▁kath	-13570
▁nhầy	-13571
▁pean	-13572
▁pige	-13573
▁rena	-13574
▁rãnh	-13575
▁ster	-13576
▁suns	-13577
▁tide	-13578
▁worn	-13579
▁yard	-13580
▁đắng	-13581
inable	-13582
minded	-13583
oulder	-13584
▁duyên	-13585
▁furth	-13586
▁hindu	-13587
▁jeans	-13588
▁juice	-13589
▁kyoto	-13590
▁marie	-13591
▁moist	-13592
▁newly	-13593
▁perse	-13594
▁selfs	-13595
▁tiles	-13596
▁twent	-13597
▁wells	-13598
▁yards	-13599
keepers	-13600
▁checks	-13601
▁chinas	-13602
▁cinema	-13603
▁circul	-13604
▁enters	-13605
▁harlem	-13606
▁helmet	-13607
▁pilots	-13608
▁pixels	-13609
▁wilder	-13610
▁beetles	-13611
▁compreh	-13612
▁desktop	-13613
▁fitness	-13614
▁gallery	-13615
▁generic	-13616
▁natures	-13617
▁squares	-13618
▁utterly	-13619
▁blocking	-13620
▁chickens	-13621
▁circular	-13622
▁colorful	-13623
▁commonly	-13624
▁deployed	-13625
▁diagnose	-13626
▁friction	-13627
▁glaciers	-13628
▁lawrence	-13629
▁mattered	-13630
▁patience	-13631
▁telomere	-13632
▁transist	-13633
▁astronomy	-13634
▁automatic	-13635
▁elaborate	-13636
▁emergence	-13637
▁executive	-13638
▁longevity	-13639
▁rejection	-13640
▁scenarios	-13641
▁spaghetti	-13642
▁wellknown	-13643
▁adolescent	-13644
▁disruption	-13645
▁exceptions	-13646
▁horizontal	-13647
▁millennium	-13648
▁priorities	-13649
▁privileged	-13650
▁responding	-13651
▁supportive	-13652
▁suspicious	-13653
▁vocabulary	-13654
▁atmospheric	-13655
▁connecticut	-13656
▁functioning	-13657
▁hippocampus	-13658
▁orientation	-13659
▁questioning	-13660
▁unemployment	-13661
▁hallucinations	-13662
gd	-13663
úm	-13664
die	-13665
sex	-13666
uri	-13667
▁eh	-13668
▁eo	-13669
▁hw	-13670
▁vr	-13671
atem	-13672
bour	-13673
lied	-13674
ords	-13675
rium	-13676
umen	-13677
▁găp	-13678
▁tyr	-13679
▁vưa	-13680
alore	-13681
anged	-13682
ieval	-13683
lined	-13684
uchia	-13685
▁1945	-13686
▁doug	-13687
▁giàn	-13688
▁miên	-13689
▁phap	-13690
▁plut	-13691
▁quôc	-13692
▁snap	-13693
▁stal	-13694
▁thảy	-13695
▁táng	-13696
▁ware	-13697
▁đấng	-13698
▁alike	-13699
▁amygd	-13700
▁blown	-13701
▁brick	-13702
▁greet	-13703
▁guilt	-13704
▁helen	-13705
▁holog	-13706
▁lakes	-13707
▁lists	-13708
▁loses	-13709
▁quăng	-13710
▁radar	-13711
▁rains	-13712
▁shred	-13713
▁spare	-13714
▁thủng	-13715
▁300000	-13716
▁cardio	-13717
▁exceed	-13718
▁format	-13719
▁greeks	-13720
▁justin	-13721
▁racing	-13722
▁sôcôla	-13723
▁tricky	-13724
▁unfair	-13725
▁virtue	-13726
▁descend	-13727
▁exagger	-13728
▁indians	-13729
▁intrins	-13730
▁penalty	-13731
▁rehabil	-13732
▁reveals	-13733
▁shaking	-13734
▁subsequ	-13735
▁terrain	-13736
▁texting	-13737
▁utility	-13738
▁accommod	-13739
▁archimed	-13740
▁calculus	-13741
▁consists	-13742
▁deserves	-13743
▁enabling	-13744
▁enjoying	-13745
▁franklin	-13746
▁freezing	-13747
▁guardian	-13748
▁kilogram	-13749
▁superior	-13750
▁armstrong	-13751
▁bangalore	-13752
▁campaigns	-13753
▁dictators	-13754
▁hamburger	-13755
▁protocell	-13756
▁spaceship	-13757
▁apartments	-13758
▁critically	-13759
▁girlfriend	-13760
▁perfection	-13761
▁psychopath	-13762
▁backgrounds	-13763
▁embarrassed	-13764
▁theoretical	-13765
▁combinations	-13766
▁visualization	-13767
▁systematically	-13768
aho	-13769
bro	-13770
epr	-13771
fus	-13772
hel	-13773
oli	-13774
wan	-13775
▁77	-13776
▁ct	-13777
▁ek	-13778
abel	-13779
offs	-13780
▁15.	-13781
▁bén	-13782
▁còi	-13783
▁dal	-13784
▁gag	-13785
▁pod	-13786
▁seb	-13787
▁til	-13788
▁tkm	-13789
▁tâp	-13790
abyte	-13791
ighth	-13792
ivals	-13793
▁chói	-13794
▁cues	-13795
▁cưỡi	-13796
▁grey	-13797
▁mask	-13798
▁phẫn	-13799
▁rais	-13800
▁ripp	-13801
▁rông	-13802
▁suýt	-13803
▁symp	-13804
▁tuôi	-13805
▁viền	-13806
boards	-13807
etical	-13808
inging	-13809
orship	-13810
redict	-13811
resist	-13812
▁camel	-13813
▁cheer	-13814
▁choir	-13815
▁drama	-13816
▁gifts	-13817
▁isaac	-13818
▁ngoặt	-13819
▁nhiêm	-13820
▁slime	-13821
▁vapor	-13822
▁xuông	-13823
▁anatom	-13824
▁boards	-13825
▁cattle	-13826
▁contag	-13827
▁corrid	-13828
▁fierce	-13829
▁gallon	-13830
▁grains	-13831
▁guatem	-13832
▁hammer	-13833
▁intric	-13834
▁learns	-13835
▁mapped	-13836
▁mouths	-13837
▁noises	-13838
▁overse	-13839
▁scheme	-13840
▁server	-13841
▁syrian	-13842
▁amyloid	-13843
▁aspirin	-13844
▁counted	-13845
▁emerges	-13846
▁forgive	-13847
▁intimid	-13848
▁israeli	-13849
▁joining	-13850
▁justify	-13851
▁lottery	-13852
▁matched	-13853
▁matthew	-13854
▁melting	-13855
▁ordered	-13856
▁reactor	-13857
▁strands	-13858
▁superno	-13859
▁switzer	-13860
▁texture	-13861
mentation	-13862
▁avoiding	-13863
▁boundary	-13864
▁cleaning	-13865
▁maximize	-13866
▁medieval	-13867
▁minerals	-13868
▁ministry	-13869
▁nigerian	-13870
▁photosyn	-13871
▁portland	-13872
▁reserves	-13873
▁scanning	-13874
▁visually	-13875
ifications	-13876
▁accepting	-13877
▁campuchia	-13878
▁confirmed	-13879
▁generates	-13880
▁inherited	-13881
▁instagram	-13882
▁libraries	-13883
▁pathogens	-13884
▁processed	-13885
▁textbooks	-13886
▁traumatic	-13887
▁unpredict	-13888
▁congestion	-13889
▁diagnostic	-13890
▁disconnect	-13891
▁disturbing	-13892
▁intentions	-13893
▁intriguing	-13894
▁passengers	-13895
▁propaganda	-13896
▁sequencing	-13897
▁cooperative	-13898
▁frequencies	-13899
▁identifying	-13900
▁implemented	-13901
▁programmers	-13902
▁switzerland	-13903
▁transmitted	-13904
▁grandmothers	-13905
▁headquarters	-13906
▁individually	-13907
▁mathematician	-13908
ho	-13909
rh	-13910
và	-13911
ún	-13912
boy	-13913
hib	-13914
igg	-13915
law	-13916
una	-13917
▁59	-13918
▁71	-13919
▁9.	-13920
▁bệ	-13921
▁ka	-13922
▁rs	-13923
bell	-13924
cker	-13925
erto	-13926
irst	-13927
itis	-13928
unks	-13929
▁188	-13930
▁aha	-13931
▁clu	-13932
▁gắt	-13933
▁gớm	-13934
▁iii	-13935
▁mép	-13936
▁mút	-13937
▁pee	-13938
▁pes	-13939
▁sri	-13940
▁sỏi	-13941
▁xac	-13942
▁đốn	-13943
actic	-13944
eries	-13945
oline	-13946
▁1993	-13947
▁apes	-13948
▁chưc	-13949
▁crap	-13950
▁duỗi	-13951
▁galv	-13952
▁jews	-13953
▁joan	-13954
▁maur	-13955
▁mini	-13956
▁mosc	-13957
▁ngụy	-13958
▁obso	-13959
▁odys	-13960
▁pays	-13961
▁reck	-13962
▁spra	-13963
▁vung	-13964
bercul	-13965
ogenic	-13966
olitan	-13967
ulsion	-13968
▁cheat	-13969
▁emper	-13970
▁julia	-13971
▁mines	-13972
▁morph	-13973
▁noble	-13974
▁paste	-13975
▁quáng	-13976
▁rises	-13977
▁saint	-13978
▁trach	-13979
issance	-13980
▁abroad	-13981
▁avatar	-13982
▁consol	-13983
▁enrich	-13984
▁firing	-13985
▁fruits	-13986
▁interd	-13987
▁lifted	-13988
▁nguyền	-13989
▁rotate	-13990
▁typing	-13991
▁weighs	-13992
lessness	-13993
vascular	-13994
▁caltech	-13995
▁chasing	-13996
▁columns	-13997
▁cooling	-13998
▁folding	-13999
▁glamour	-14000
▁houston	-14001
▁longest	-14002
▁motions	-14003
▁powered	-14004
▁reinfor	-14005
▁shadows	-14006
▁sounded	-14007
▁abundant	-14008
▁altitude	-14009
▁frontier	-14010
▁lifelong	-14011
▁noticing	-14012
▁referred	-14013
▁regulate	-14014
▁treasure	-14015
▁tubercul	-14016
▁visitors	-14017
ographical	-14018
▁fishermen	-14019
▁practiced	-14020
▁recovered	-14021
▁resulting	-14022
▁therapist	-14023
▁archimedes	-14024
▁biolumines	-14025
▁infinitely	-14026
▁staggering	-14027
▁aspirations	-14028
▁marketplace	-14029
▁philippines	-14030
▁replacement	-14031
▁sensitivity	-14032
▁catastrophic	-14033
▁deliberately	-14034
▁economically	-14035
▁kindergarten	-14036
▁tuberculosis	-14037
▁collaborators	-14038
▁traditionally	-14039
eg	-14040
ji	-14041
bee	-14042
dra	-14043
iry	-14044
▁62	-14045
▁ft	-14046
▁nư	-14047
tles	-14048
▁1.6	-14049
▁aar	-14050
▁cav	-14051
▁cnn	-14052
▁cơm	-14053
▁cọc	-14054
▁heh	-14055
▁lak	-14056
▁lẩn	-14057
▁lụa	-14058
▁pam	-14059
▁sue	-14060
▁são	-14061
▁thỉ	-14062
▁xịt	-14063
▁đấm	-14064
ediat	-14065
▁1940	-14066
▁1991	-14067
▁balk	-14068
▁brex	-14069
▁doaa	-14070
▁doub	-14071
▁ease	-14072
▁fled	-14073
▁folk	-14074
▁giễu	-14075
▁hash	-14076
▁kent	-14077
▁khoi	-14078
▁lips	-14079
▁mead	-14080
▁ngâm	-14081
▁noah	-14082
▁phep	-14083
▁seam	-14084
▁sưng	-14085
▁tesz	-14086
▁thối	-14087
ranean	-14088
uminum	-14089
venues	-14090
worthy	-14091
▁2020.	-14092
▁adequ	-14093
▁beats	-14094
▁crude	-14095
▁escal	-14096
▁guest	-14097
▁midst	-14098
▁nhúng	-14099
▁occas	-14100
▁phích	-14101
▁pitts	-14102
▁relie	-14103
▁samar	-14104
▁snaps	-14105
▁watts	-14106
inators	-14107
osexual	-14108
▁arbitr	-14109
▁dishes	-14110
▁retain	-14111
▁rooted	-14112
▁routes	-14113
▁sovere	-14114
▁sticky	-14115
▁theirs	-14116
▁confirm	-14117
▁digging	-14118
▁fighter	-14119
▁hungary	-14120
▁jackson	-14121
▁legally	-14122
▁natasha	-14123
▁rabbits	-14124
▁sensing	-14125
▁spiders	-14126
▁autistic	-14127
▁impacted	-14128
▁minimize	-14129
▁obsolete	-14130
▁primates	-14131
▁releases	-14132
▁survivor	-14133
▁triggers	-14134
▁variable	-14135
▁victoria	-14136
▁apologize	-14137
▁lowincome	-14138
▁producers	-14139
▁promotion	-14140
▁satisfied	-14141
▁spacetime	-14142
▁strengths	-14143
▁wandering	-14144
▁beneficial	-14145
▁christians	-14146
▁meditation	-14147
▁suggestion	-14148
▁systematic	-14149
▁concentrate	-14150
▁contributed	-14151
▁empowerment	-14152
▁exponential	-14153
▁frustrating	-14154
▁authoritarian	-14155
cm	-14156
df	-14157
és	-14158
hea	-14159
isc	-14160
lar	-14161
rin	-14162
vol	-14163
▁94	-14164
▁gò	-14165
bear	-14166
blin	-14167
long	-14168
othy	-14169
owan	-14170
seen	-14171
▁1.4	-14172
▁203	-14173
▁cel	-14174
▁dod	-14175
▁eag	-14176
▁gót	-14177
▁ich	-14178
▁kèn	-14179
▁soy	-14180
▁sạc	-14181
▁trệ	-14182
▁đia	-14183
opian	-14184
▁adds	-14185
▁belo	-14186
▁chăc	-14187
▁echo	-14188
▁glue	-14189
▁gogh	-14190
▁gran	-14191
▁grim	-14192
▁hers	-14193
▁lamb	-14194
▁maya	-14195
▁numb	-14196
▁nòng	-14197
▁phan	-14198
▁quiz	-14199
▁shir	-14200
▁trọt	-14201
▁unac	-14202
affold	-14203
izable	-14204
screen	-14205
▁antim	-14206
▁armor	-14207
▁billy	-14208
▁chiết	-14209
▁cloth	-14210
▁cohen	-14211
▁deple	-14212
▁ensla	-14213
▁octop	-14214
▁oscar	-14215
▁shack	-14216
▁spike	-14217
▁spong	-14218
▁wrest	-14219
chester	-14220
▁copied	-14221
▁eighth	-14222
▁exquis	-14223
▁ironic	-14224
▁mature	-14225
▁murray	-14226
▁potter	-14227
▁prohib	-14228
▁reimag	-14229
▁rolled	-14230
▁toyota	-14231
▁tweets	-14232
▁arduino	-14233
▁asymmet	-14234
▁cameron	-14235
▁compens	-14236
▁defines	-14237
▁examine	-14238
▁grammar	-14239
▁kidding	-14240
▁seventh	-14241
▁talents	-14242
▁winners	-14243
▁analyzed	-14244
▁annoying	-14245
▁coverage	-14246
▁entities	-14247
▁habitats	-14248
▁innovate	-14249
▁operates	-14250
▁promises	-14251
▁scaffold	-14252
▁skeletal	-14253
▁tangible	-14254
▁brazilian	-14255
▁guatemala	-14256
▁headaches	-14257
▁tasmanian	-14258
▁variables	-14259
▁addressing	-14260
▁australian	-14261
▁chromosome	-14262
▁concussion	-14263
▁interfaces	-14264
▁irrational	-14265
▁metabolism	-14266
▁republican	-14267
▁celebrating	-14268
▁fluorescent	-14269
▁frustration	-14270
▁renaissance	-14271
▁disappointed	-14272
▁reproduction	-14273
▁contributions	-14274
18	-14275
ags	-14276
alo	-14277
erk	-14278
raz	-14279
tôi	-14280
ucl	-14281
ỳnh	-14282
▁63	-14283
▁76	-14284
▁87	-14285
▁ks	-14286
asts	-14287
aver	-14288
gree	-14289
mill	-14290
wall	-14291
▁2.0	-14292
▁90.	-14293
▁aur	-14294
▁dấy	-14295
▁edi	-14296
▁heb	-14297
▁hud	-14298
▁nóc	-14299
▁tuc	-14300
▁đùi	-14301
aning	-14302
ascar	-14303
oshop	-14304
▁1975	-14305
▁asth	-14306
▁bulb	-14307
▁chắt	-14308
▁edit	-14309
▁exos	-14310
▁fict	-14311
▁greg	-14312
▁hats	-14313
▁hint	-14314
▁hond	-14315
▁jill	-14316
▁nash	-14317
▁peps	-14318
▁puff	-14319
▁rhet	-14320
▁sixt	-14321
▁thét	-14322
▁thạc	-14323
▁verb	-14324
abytes	-14325
ending	-14326
itters	-14327
▁1.000	-14328
▁ailen	-14329
▁ambul	-14330
▁amino	-14331
▁arter	-14332
▁breed	-14333
▁chông	-14334
▁crick	-14335
▁desce	-14336
▁elder	-14337
▁fence	-14338
▁fleet	-14339
▁huỳnh	-14340
▁incon	-14341
▁jokes	-14342
▁loren	-14343
▁naive	-14344
▁piles	-14345
▁rides	-14346
▁serge	-14347
▁steep	-14348
▁stein	-14349
▁therm	-14350
▁amanda	-14351
▁decomp	-14352
▁digits	-14353
▁famine	-14354
▁heroic	-14355
▁interm	-14356
▁kicked	-14357
▁ladder	-14358
▁mixing	-14359
▁plates	-14360
▁salmon	-14361
▁scarce	-14362
▁senate	-14363
▁stella	-14364
▁tattoo	-14365
▁varied	-14366
▁walter	-14367
interest	-14368
▁ashamed	-14369
▁equator	-14370
▁explode	-14371
▁familys	-14372
▁heating	-14373
▁lesbian	-14374
▁oakland	-14375
▁sailing	-14376
▁spatial	-14377
▁squeeze	-14378
▁surveys	-14379
▁symptom	-14380
▁warrior	-14381
▁weekend	-14382
conscious	-14383
iondollar	-14384
▁currents	-14385
▁detected	-14386
▁elevator	-14387
▁embraced	-14388
▁entrance	-14389
▁envision	-14390
▁forecast	-14391
▁improvis	-14392
▁infinity	-14393
▁interrog	-14394
▁matching	-14395
▁persuade	-14396
▁pressing	-14397
▁procrast	-14398
▁protects	-14399
▁purchase	-14400
▁pursuing	-14401
▁receptor	-14402
▁superher	-14403
▁surgical	-14404
▁velocity	-14405
▁adulthood	-14406
▁firsthand	-14407
▁massively	-14408
▁mosquitos	-14409
▁portraits	-14410
▁pressures	-14411
▁southeast	-14412
▁surviving	-14413
▁discomfort	-14414
▁harassment	-14415
▁ingredient	-14416
▁opposition	-14417
▁destructive	-14418
▁existential	-14419
▁palestinian	-14420
▁problematic	-14421
▁stereotypes	-14422
▁accelerating	-14423
▁appreciation	-14424
▁participating	-14425
▁cardiovascular	-14426
tw	-14427
aky	-14428
err	-14429
ete	-14430
run	-14431
urp	-14432
▁61	-14433
▁bc	-14434
▁bã	-14435
▁ix	-14436
▁sộ	-14437
▁vá	-14438
asso	-14439
bone	-14440
drop	-14441
gian	-14442
idel	-14443
inch	-14444
inia	-14445
omon	-14446
pers	-14447
rise	-14448
udge	-14449
ylum	-14450
▁60.	-14451
▁abn	-14452
▁eru	-14453
▁fog	-14454
▁gum	-14455
▁joh	-14456
▁mud	-14457
▁nba	-14458
▁nhổ	-14459
▁nik	-14460
▁nồi	-14461
▁owe	-14462
▁sáp	-14463
▁sên	-14464
▁thà	-14465
▁vig	-14466
asant	-14467
human	-14468
icism	-14469
onica	-14470
ophob	-14471
pling	-14472
▁bart	-14473
▁bund	-14474
▁bịch	-14475
▁carn	-14476
▁disk	-14477
▁dodo	-14478
▁dorm	-14479
▁giun	-14480
▁horn	-14481
▁mald	-14482
▁mint	-14483
▁mola	-14484
▁ngặt	-14485
▁nhôm	-14486
▁pent	-14487
▁phẩy	-14488
▁plum	-14489
▁pyth	-14490
▁reed	-14491
▁slip	-14492
▁slog	-14493
▁thêu	-14494
▁ucla	-14495
emical	-14496
iances	-14497
▁2050.	-14498
▁burns	-14499
▁citys	-14500
▁dates	-14501
▁geoff	-14502
▁idaho	-14503
▁madag	-14504
▁penis	-14505
▁qatar	-14506
▁remem	-14507
▁salad	-14508
▁sandy	-14509
▁simul	-14510
▁teens	-14511
▁wales	-14512
▁wives	-14513
ologies	-14514
▁angles	-14515
▁burger	-14516
▁cathed	-14517
▁defeat	-14518
▁finite	-14519
▁hiring	-14520
▁mammal	-14521
▁moscow	-14522
▁strang	-14523
▁taller	-14524
▁treaty	-14525
▁valued	-14526
▁zambia	-14527
▁charter	-14528
▁dangers	-14529
▁domitia	-14530
▁eternal	-14531
▁expense	-14532
▁funeral	-14533
▁hostile	-14534
▁lasting	-14535
▁lowcost	-14536
▁matches	-14537
▁newborn	-14538
▁nursing	-14539
▁picasso	-14540
▁portray	-14541
▁shepher	-14542
▁tightly	-14543
▁amygdala	-14544
▁ancestor	-14545
▁balloons	-14546
▁basement	-14547
▁gestures	-14548
▁guidance	-14549
▁intimacy	-14550
▁midnight	-14551
▁montreal	-14552
▁sticking	-14553
▁thorough	-14554
▁committee	-14555
▁directors	-14556
▁fragments	-14557
▁immigrant	-14558
▁lightning	-14559
▁metabolic	-14560
▁metaphors	-14561
▁millennia	-14562
▁replacing	-14563
▁accumulate	-14564
▁developers	-14565
▁disruptive	-14566
▁frightened	-14567
▁procedures	-14568
▁profitable	-14569
▁sculptures	-14570
▁circulation	-14571
▁disciplines	-14572
▁measurement	-14573
▁millennials	-14574
▁neighboring	-14575
▁threatening	-14576
▁transported	-14577
▁worldchanging	-14578
aka	-14579
blo	-14580
tes	-14581
▁sờ	-14582
fits	-14583
itri	-14584
mile	-14585
rays	-14586
▁18.	-14587
▁19.	-14588
▁ald	-14589
▁kay	-14590
▁obe	-14591
▁phả	-14592
▁ree	-14593
▁sms	-14594
▁wag	-14595
▁xít	-14596
cises	-14597
illes	-14598
proof	-14599
umann	-14600
wling	-14601
▁1100	-14602
▁calo	-14603
▁cerv	-14604
▁chan	-14605
▁chén	-14606
▁gaze	-14607
▁mesh	-14608
▁neil	-14609
▁orth	-14610
▁phuc	-14611
▁pipe	-14612
▁quật	-14613
▁reun	-14614
▁sene	-14615
▁thỉu	-14616
▁toss	-14617
enance	-14618
nesota	-14619
taking	-14620
▁11000	-14621
▁2007.	-14622
▁anton	-14623
▁arise	-14624
▁backs	-14625
▁bikes	-14626
▁biếng	-14627
▁crust	-14628
▁decim	-14629
▁favel	-14630
▁frogs	-14631
▁locom	-14632
▁olive	-14633
▁picks	-14634
▁pixel	-14635
▁selfe	-14636
▁spine	-14637
▁surre	-14638
▁troll	-14639
▁wrink	-14640
frontal	-14641
▁500000	-14642
▁affair	-14643
▁attorn	-14644
▁ballet	-14645
▁bamboo	-14646
▁carter	-14647
▁chuộng	-14648
▁cockro	-14649
▁comics	-14650
▁cowork	-14651
▁evergl	-14652
▁fixing	-14653
▁hatred	-14654
▁irrele	-14655
▁lethal	-14656
▁mascul	-14657
▁mating	-14658
▁openly	-14659
▁prayer	-14660
▁rachel	-14661
▁reflex	-14662
▁restor	-14663
▁shield	-14664
▁traces	-14665
▁unimag	-14666
▁valent	-14667
▁wilson	-14668
▁wounds	-14669
computer	-14670
omething	-14671
▁acquire	-14672
▁blessed	-14673
▁blogger	-14674
▁crushed	-14675
▁diamond	-14676
▁donated	-14677
▁editing	-14678
▁mediter	-14679
▁penguin	-14680
▁phrases	-14681
▁pouring	-14682
▁recomme	-14683
▁rectang	-14684
▁rescued	-14685
▁rosetta	-14686
▁springs	-14687
▁streams	-14688
▁thermal	-14689
▁wolfram	-14690
▁equipped	-14691
▁frequent	-14692
▁lifespan	-14693
▁marshall	-14694
▁memorial	-14695
▁missions	-14696
▁modeling	-14697
▁administr	-14698
▁breakdown	-14699
▁cardboard	-14700
▁demanding	-14701
▁enlighten	-14702
▁fictional	-14703
▁illnesses	-14704
▁integrity	-14705
▁intersect	-14706
▁intervene	-14707
▁magazines	-14708
▁minnesota	-14709
▁parachute	-14710
▁photoshop	-14711
▁selfassem	-14712
▁successes	-14713
▁adaptation	-14714
▁anesthesia	-14715
▁disappears	-14716
▁distribute	-14717
▁generosity	-14718
▁guaranteed	-14719
▁madagascar	-14720
▁prefrontal	-14721
▁quantities	-14722
▁superpower	-14723
▁dysfunction	-14724
▁financially	-14725
▁stimulation	-14726
▁trafficking	-14727
▁hypothetical	-14728
▁illustration	-14729
▁electromagnetic	-14730
ơc	-14731
ask	-14732
dad	-14733
loc	-14734
▁51	-14735
▁fg	-14736
▁ló	-14737
▁mị	-14738
▁rì	-14739
▁át	-14740
bees	-14741
core	-14742
mony	-14743
page	-14744
uten	-14745
vens	-14746
zero	-14747
▁204	-14748
▁80.	-14749
▁aaa	-14750
▁ale	-14751
▁bbc	-14752
▁cem	-14753
▁cội	-14754
▁dấn	-14755
▁jaw	-14756
▁lâp	-14757
▁lẽo	-14758
▁tạc	-14759
▁ups	-14760
annah	-14761
berto	-14762
built	-14763
conds	-14764
eters	-14765
grand	-14766
itute	-14767
ofthe	-14768
pound	-14769
ppers	-14770
rians	-14771
▁chen	-14772
▁chẵn	-14773
▁dươi	-14774
▁giầy	-14775
▁ngầu	-14776
▁nhọc	-14777
▁thầu	-14778
▁điểu	-14779
estone	-14780
opedia	-14781
ulture	-14782
▁alloc	-14783
▁carbo	-14784
▁dougl	-14785
▁files	-14786
▁hatch	-14787
▁jimmy	-14788
▁juven	-14789
▁macro	-14790
▁pumps	-14791
▁scans	-14792
▁scope	-14793
▁steer	-14794
▁tanks	-14795
▁trill	-14796
▁triêu	-14797
▁ushah	-14798
▁asylum	-14799
▁crunch	-14800
▁denied	-14801
▁edison	-14802
▁floors	-14803
▁graham	-14804
▁hugely	-14805
▁hybrid	-14806
▁mohamm	-14807
▁multit	-14808
▁oliver	-14809
▁panama	-14810
▁salary	-14811
▁submit	-14812
▁tastes	-14813
▁thered	-14814
▁transf	-14815
▁tshirt	-14816
▁unlock	-14817
▁update	-14818
▁washed	-14819
▁battles	-14820
▁checked	-14821
▁condoms	-14822
▁dreamed	-14823
▁easiest	-14824
▁enzymes	-14825
▁frontal	-14826
▁grounds	-14827
▁holiday	-14828
▁lighter	-14829
▁rhythms	-14830
▁shipped	-14831
▁worship	-14832
▁adoption	-14833
▁aluminum	-14834
▁calendar	-14835
▁ceremony	-14836
▁entitled	-14837
▁feminine	-14838
▁gigantic	-14839
▁governor	-14840
▁liberals	-14841
▁obstacle	-14842
▁passions	-14843
▁prevents	-14844
▁progeria	-14845
▁reminder	-14846
▁responds	-14847
▁simulate	-14848
▁startups	-14849
▁uniquely	-14850
▁assistant	-14851
▁combining	-14852
▁commodity	-14853
▁container	-14854
▁continuum	-14855
▁exclusive	-14856
▁execution	-14857
▁exercises	-14858
▁favorites	-14859
▁illusions	-14860
▁imperfect	-14861
▁phenomenal	-14862
▁regenerate	-14863
▁specialist	-14864
▁thankfully	-14865
▁ultrasound	-14866
▁wilderness	-14867
▁celebration	-14868
▁expectation	-14869
▁initiatives	-14870
▁encyclopedia	-14871
▁installation	-14872
▁conservatives	-14873
▁experimenting	-14874
cu	-14875
pm	-14876
aro	-14877
flu	-14878
fts	-14879
iza	-14880
mph	-14881
not	-14882
oul	-14883
yed	-14884
ươm	-14885
▁73	-14886
▁bú	-14887
▁ls	-14888
▁tc	-14889
▁tứ	-14890
▁vv	-14891
▁vơ	-14892
▁xổ	-14893
▁ya	-14894
arts	-14895
eera	-14896
enet	-14897
four	-14898
ople	-14899
otte	-14900
ucky	-14901
umbs	-14902
▁11.	-14903
▁ace	-14904
▁chê	-14905
▁gym	-14906
▁hub	-14907
▁hul	-14908
▁lur	-14909
▁mba	-14910
▁ocd	-14911
▁rôb	-14912
▁rớt	-14913
▁sục	-14914
▁vas	-14915
▁xót	-14916
▁yah	-14917
▁ăng	-14918
brush	-14919
enter	-14920
gency	-14921
gener	-14922
heads	-14923
ibera	-14924
ineph	-14925
▁auto	-14926
▁chải	-14927
▁clap	-14928
▁corp	-14929
▁dens	-14930
▁dẳng	-14931
▁eman	-14932
▁isir	-14933
▁merg	-14934
▁mund	-14935
▁ngợp	-14936
▁nhộn	-14937
▁pops	-14938
▁robb	-14939
▁skip	-14940
▁toes	-14941
▁yall	-14942
atible	-14943
necess	-14944
orient	-14945
▁arena	-14946
▁diarr	-14947
▁giang	-14948
▁glory	-14949
▁hurts	-14950
▁lobby	-14951
▁metan	-14952
▁pepsi	-14953
▁petri	-14954
▁pixar	-14955
▁prete	-14956
▁scrap	-14957
▁slept	-14958
▁stunt	-14959
▁toast	-14960
natural	-14961
▁250000	-14962
▁athens	-14963
▁barbie	-14964
▁behold	-14965
▁bucket	-14966
▁closet	-14967
▁debris	-14968
▁depths	-14969
▁donate	-14970
▁filmed	-14971
▁firmly	-14972
▁freeze	-14973
▁hamlet	-14974
▁ideals	-14975
▁lasted	-14976
▁lately	-14977
▁nathan	-14978
▁overlo	-14979
▁pediat	-14980
▁stocks	-14981
▁tender	-14982
▁viable	-14983
▁viscer	-14984
▁voyage	-14985
▁antenna	-14986
▁babbage	-14987
▁climbed	-14988
▁costeff	-14989
▁epiphan	-14990
▁knocked	-14991
▁laptops	-14992
▁menstru	-14993
▁reduces	-14994
▁slowing	-14995
▁teszler	-14996
▁warfare	-14997
inephrine	-14998
▁baseline	-14999
▁distress	-15000
▁executed	-15001
▁exploded	-15002
▁explorer	-15003
▁imprison	-15004
▁remotely	-15005
▁removing	-15006
▁sacrific	-15007
▁settings	-15008
▁sidewalk	-15009
▁stealing	-15010
▁terminal	-15011
▁ushahidi	-15012
generation	-15013
ngineering	-15014
▁artifacts	-15015
▁celebrity	-15016
▁charlotte	-15017
▁consuming	-15018
▁neocortex	-15019
▁sustained	-15020
▁advantages	-15021
▁conceptual	-15022
▁coordinate	-15023
▁courageous	-15024
▁inventions	-15025
▁invitation	-15026
▁ironically	-15027
▁politician	-15028
▁prototypes	-15029
▁competitors	-15030
▁illustrates	-15031
▁publication	-15032
▁spontaneous	-15033
▁authenticity	-15034
▁independently	-15035
▁mediterranean	-15036
▁physiological	-15037
gy	-15038
zo	-15039
ẻm	-15040
fur	-15041
tic	-15042
vet	-15043
zan	-15044
▁83	-15045
▁nr	-15046
▁rl	-15047
hrir	-15048
kers	-15049
lera	-15050
ller	-15051
mond	-15052
ndor	-15053
orna	-15054
ouri	-15055
plic	-15056
▁70.	-15057
▁dug	-15058
▁hẻm	-15059
▁lẫy	-15060
▁mck	-15061
▁ngả	-15062
▁nạt	-15063
▁xài	-15064
▁xắn	-15065
ammed	-15066
ergus	-15067
liers	-15068
speed	-15069
▁angi	-15070
▁argu	-15071
▁beef	-15072
▁bành	-15073
▁chèn	-15074
▁chồn	-15075
▁dash	-15076
▁duke	-15077
▁fmri	-15078
▁gary	-15079
▁godd	-15080
▁impl	-15081
▁lộng	-15082
▁miệt	-15083
▁myri	-15084
▁ngất	-15085
▁quix	-15086
▁resh	-15087
▁skys	-15088
▁thre	-15089
▁xuôi	-15090
▁xông	-15091
▁đanh	-15092
▁đong	-15093
ailand	-15094
otrans	-15095
▁2015.	-15096
▁agnes	-15097
▁andre	-15098
▁atlas	-15099
▁frees	-15100
▁inert	-15101
▁kidna	-15102
▁pearl	-15103
▁pragm	-15104
▁ridge	-15105
▁ruled	-15106
▁seals	-15107
▁shuff	-15108
▁spart	-15109
▁spock	-15110
▁stiff	-15111
▁witch	-15112
ivation	-15113
thetics	-15114
▁acumen	-15115
▁admire	-15116
▁ambass	-15117
▁antide	-15118
▁beside	-15119
▁dement	-15120
▁fergus	-15121
▁hitler	-15122
▁hooked	-15123
▁jacket	-15124
▁kibera	-15125
▁labels	-15126
▁powder	-15127
[...]
